<unk>
<s>
</s>
dra@@
peeling
seeds
vintage
stitchwork
key
while
ceramic
shake
bio
flexibility
stacking
warmest
useplace
reaching
ter-@@
orn
sleeve
crust
finely
sweet
looks
packs
sturdi@@
small
cal
exquisite
elegant
damp
devices
micke
oven
materials
bredskär
face
siblings
truly
en
repea@@
fastening
swedish
robot
wood
inside
wider
tally
hearing
pair
shelving
public
7
hardware
pointelle
breathable
crew
open-collar
hand
ler
amazingly
lish
conceal
waist
cushiondo
extreme
ers
mismatches
whisk@@
gowns
sea@@
drawers
e@@
dry
playful
moisture
planet
mobility
-
situations
tten
coveriron
stand
snow
mid@@
makeup
domsjö
prepared
ph@@
bake
colored
pears
moved
tension
character
ne
sili@@
photos
cropped
practicality
dried
magnet
vents
ppings
wooden
rep@@
suit
romance
e26
kni@@
napkins
mattre@@
repeated
dry.do
nutri@@
armrest
craftsman
shatter-resistant
calen@@
vel
transport
adap@@
ron@@
natural
pots
sty
s@@
withstands
cloth.wardrobe
unrestricted
vent
five
forearms
sticking
finish
armchair
dishwasher-safe.leave
usbs
silently
products
soiled
stretchable
therefore
sph@@
brown
angled
ur@@
mea@@
getting
3-seat
simple
eable
ta
value
for
spectrum
måla
give
close
necklaces
bamboo
boxer
charger
suitable
se
tree
crouching
waterproof
ceiling
summery
industries
ti@@
before
neutralizing
removable
make
bacillus
refrigerator
dess@@
tanned
spec@@
extremely
stu@@
bath@@
online
plate
opener
lan@@
print
applies
paint
ely
specially
on
lots
dim
shawls
grate
nicely
actually
stuff
mesh
party
detergent
slight
chargers
one
textured
basketwipe
microfiber
rugs
temperature
contains
5
dress
treatment
lack
motifs
nyc
fill
springy
hint
rub
take
tiny
bedlinens
ets
mixed
enhanced
ä@@
mp
harmonious
smoother
protein
rooms
grinding
drop
luxury
chair
yarn
minimal
safe
grundtal
foods
stained
other
mounted
travel
closure
tee
gift
86
glass
salmon
rug
hurt
king
unique
jersey
hard@@
blackberries
gli@@
shade
suc@@
coverhand
home
meets
side@@
ap@@
simpli@@
yarns
.line
co
alber@@
wasted
sideboard
winter
deodorizing
warmth
replaceable
impact
perpendicular
rust
isulating
shrinking
italian
minds
ihärdig
lenses
disassemble
mint
others@@
uv
de@@
dee@@
ll@@
jeans
everywhere
gains
coco@@
homework
redesigned
friendly
cook@@
140
placing
timer
multigrain
themselves
easy
linen
tumble
drips
varying
ledge
lin@@
ke@@
display
direct
push
yellow
preheat
bearing
surprising
silicone
yacht
board
oil
cartridge
po@@
below
ea@@
nearby
deep
goods
lot
shifts
are
on@@
precise
washing
tomorrow
charging
cooktop
content
sunny
dimming
incredibly
ssed
soa@@
eason
potted
vase
details
jas@@
dampens
tra@@
seeping
framing
dig
ting
chaise
mobile
prin@@
women
unlike
fied
newspapers
ster
popcorn
outlet
buffalo
radiant
minute
ordination
cleaner.wipe
clean.cover
9@@
60
usb
spicy
cro@@
5-seat
holes
cut
wrinkling
unsaturated
visual
diaper
measure@@
living
beating
resistant
li
stabili@@
going
chenille
unparalleled
globe
lam@@
de
rechargers
frozen
oo@@
skin
cutting
blankets
sheltered
tucks
practices
ribbed
is@@
beauty
positioning
opti@@
shutting
burden
spark@@
half
potpourri
resistance
bri@@
life
percale
beach
soo@@
lamp
stimu@@
noise
listening
chu@@
deci@@
cel@@
lay
visible
ad
thins
highest
skilled
bring
pictures
alternative
ch@@
gri@@
edges
150
regular
dressing
tap
surroun@@
d
cloud@@
.
free
matt
stay
cold
separately
covers
14
backing
wide
releases
different
cars
giving
plated
switch
m@@
ching
present
stabilized
depending
dividing
pairs
ex
relaxed
ble@@
sports
lounges
burning
sole
right
sation
mi@@
cing
wicks
sa@@
cheese
dough
tively
tivate
er@@
hallways
portions
darkening
connectors
skipper
port
cl@@
ssing
using
stacked
son@@
ne@@
matching
press
gement
e1@@
t
les
via
⅞
expand
spice
table@@
carefree
reinforced
cri@@
clear
scented
bergamot
pack
cut@@
chairwipe
spots
option
vest
stripes
n@@
tic
stitching
inserting
resource
style
setting
cm
dro@@
spotlights
screws
ability
sparkle
chest
tou@@
showcase
cotton
car
pre@@
ce@@
conc@@
decide
trim
work@@
coun@@
tables
brace
layer
o@@
suspen@@
dly
clea@@
map
depths
stool
vin@@
frosted
pants
outfit
ko@@
them@@
summer
frame
4-seat
indoors
il
dol@@
factor
shorts
pouch
uti@@
ou@@
produce
wi@@
insulation
res@@
seam
development
atmosphere
oak
kitchens
al
separately.do
shin@@
17
ticking
moisturized
microwave
sure
iron
val
clean.wipe
garment
tosterö
dge
uring
silent
weft
balan@@
trestle
placed
toddlers
bly
colder
neces@@
assortment
hiding
co@@
likely
narrows
walk
electric
9
after@@
tulle
bility
furnish
asc
deeper
there
hear@@
000
spills
swee@@
panel
meats
styles
person@@
entirely
necessary
acces@@
1x1rib
½
pocketable
folding
way
ones
panels
rings
away
year
&apos;
standard
level
hitting
ert
ever@@
gho@@
ky
they
us@@
mixture
haring
defrost
activity
ever
wet.shrinkage
against
drawstring
boholmen
reac@@
help
flowers
show
feature
runs
slept
team
meat
blowing
biscuits
mil@@
systems
basket
turtleneck
paints
tent
clicks
top@@
skateboard
lanter@@
forests
cushioned
op@@
ws
ckers
sparkly
gur@@
ve@@
www.utz.org
laundry
charm
wheels
softness
pieces
insulated
exciting
hea@@
shrink
choice
shoulders
denim
5@@
their
tone
adjust
tub
music
decorate
garments
cloth.extendable
figures
cooktops
staying
n-@@
falling
plank
30
tea
comforter
textilemachine
eyelet
side.do
all@@
ses
plea@@
sometimes
frills
gan@@
festive
lean
ta@@
neck@@
computer
hoodie
suggested
table
teach
fa@@
balls
attachment
liquid
keep
caramel
dri@@
polo
stem
lights
dark@@
nutritional
fresher
spilling
bowls
drink
sock@@
dividers
cushioning
flat.do
roof
product
leak
res
stretchy
tries
cked
coordinates
keeps
divider
curved
sits
artestar
texture
wind
sold
screw
dryer
tters
perfect
outing
ancient
walnut
toilet
www.@@
strainer
intense
clean@@
gloves
tip
trous@@
gets
disturbing
whole
stackable
leas@@
ance
grasp
confidence
cookies
at@@
feldspar
upper
letters
preserves
hassle
rare
ground
troublesome
y@@
hug
shrimp
djuparp
drainage
tor@@
gh
fitted
retains
control
juice
naturally
desktop
bes
fittings
movie
down@@
multi-use
patio
school
gather
sheen
porcelain
knit
grid
¼
lounger
scratch
hints
4
incomparable
i
protects
continu@@
skirtmachine
grinders
blossoming
sized
contemporary
absorbent
padding
pollen
let
sty@@
knob
jars
pronounced
tive
run@@
double
nea@@
absorbs
roomy
line
situ@@
duck
comes
tealight
ste@@
modern
bonnell
flared
ad@@
workout
empty
coup@@
long
particleboard
docu@@
quilting
cocktails
6
3-pair
push@@
illumin@@
ze
freestanding
ments
nal
mushrooms
lets
fined
extendable
ly-@@
body
trendy
child
bite
still
broken
lic
sen@@
unit
access
piece
lion
underar@@
jams
french
ter
strain
listen
groove
side.dry
rattle
flannel
slots
securing
protec@@
pellets
respon@@
mustard
bul@@
seasons
fully
mattress
contoured
base
increase
qu@@
else
unplug
serrated
requirements
shorter
button
men
sinks
handmade
mon@@
experience
develop
example
closets
san@@
98
blo@@
topping
inspired
everyday
errands
stored
fu@@
distinct
system
accessories
soap
stick
efficiently
prolon@@
sharpen
480
anodized
warranty
open
2-@@
firmly
provided
ambiance
offer
cloth.divider
fall
qui@@
spreading
ghten@@
effect
mixing
et@@
microfibers
acid
suited
memory
crunchy
directly
entra@@
pendant
tment
ready
boiled
pine
device
com
pour
zippers
designed
sses
floorhead
365
sweater
fine
flex@@
3@@
neater
wedge
belt
magnets
pe
intermediate
wrap
ss@@
rays
il@@
removes
foggy
protective
front
knots
doing
patch
16
resembles
feedback
dampers
butt@@
flatware
framewipe
ces
address
gar
aluminum
10@@
flying
strap
better
tradition
drawer
project
platform
shirt
bles
pastry
developed
seconds
industrial
blended
k@@
wash
active
mercerized
pee@@
aim
coordinated
tired
nightstand
va@@
stylish
shrinkage
stamp
swea@@
methods
certa@@
c.sleeper
iz@@
soaked
mou@@
zip
grass
consumption
move
hacksaw
coordin@@
openers
tones
baskets
roller
emp@@
coagulans
building
mold
camisole
e12.@@
constricting
she
lo@@
ch
incorporated
star
firmer
ny
floor
ed
detach
milk
customer
tray
20
global
photo@@
ripstop
well
a
queen
tte@@
ligh@@
near
ine
jour@@
sustaining
ups
compartment
break
ffe@@
scooped
authentic
m
candles
reflects
topwipe
memor@@
lad@@
medium.do
density
cloth.4
cat
breakfast
favorable
greater
home@@
secre@@
red@@
poultry
lip
sto@@
2017
occasion
required
lent
cor@@
leave
svartsjön
24
n
tch@@
bread
buck@@
bench
mouth
conveniently
char@@
warmer
zes
rather
scratching
lively
sig@@
tting
exclusive
mo@@
heading
maintain
camouflage
bomb
scent
stars
rema@@
go@@
solution.protect
coverwipe
wool
closely
tank
marbled
losing
now
ner
0@@
212
personality
ther@@
rhythmic
acks
hardwearing
urethane
quick-drying
band
drier
mount
scratches
led
ver@@
sheet
can@@
airy
wine
rails
ac@@
sour
includes
lar
transforms
thicknesses
mill
stack
gloss
o
c.iron
wallpapering
la
oat
covervacuum
dinner
strong
bikini
fro@@
putting
lovely
softer
marmalade
cables
beacause
joint
above
dal
crumbs
balanced
alone
ple
na
damage
immediately
ridges
behave
complement
cooktop.@@
privacy
big
cloth.dishwasher-safe
23
shell@@
°
x@@
ankles
sc@@
waterwater
ght
nt
several
ck@@
turns
helps
tips
optical
ajar
jose@@
gical
ga@@
support
ink
harder
raspberry
jewel
snaps
h@@
billion
resilient
polyurethane
fastness
desig@@
candy
shining
yourself
enjoys
er
tar@@
ming
00
lined
cloth.door
curl
must
horizontally
treat
gu10.@@
omega
ironing
velour
lacquered
sures
loop
fit
hinge
ultraviolet
ate
headings
assembled
such
brea@@
bevera@@
ill@@
feeling
dill
jellies
s
parka
changed
high.dry
tu@@
aromas
whether
si@@
wo
absorption
occasionally
fleece
beans
arranged
paper
athletes
u
container
countertops
springs
eves
glassware
evenly
vidga
cloth
vivid
fashionable
without
pillows
knobs
moving
15
walking
first
mini@@
down
floa@@
drying
features
gs
lored
play
slatted
horseradish
fridge
sting
power
slicing
heather
appropriate
discover
main@@
mps
tcher
é@@
hold
heighten
seats
tested
notes
clean.inner
cup
argan
est
sprou@@
anti
penetration
create
smooth
this
chandelier
changes
spray
bulk
comforters
har@@
fashioned
maternity
behandla
beats
snug
no
corn@@
classic
goo@@
gives
american
personalize
passport
overnight
terms
serve
onto
pockets
arms
dope
staining
pleasant
glasses
f@@
handwoven
smoky
between
each
lukewarm
bleach
stop
efficient
milled
sin@@
resilience
pleats
ni@@
lid
al@@
additional
shoulder
instead
bigger
gg@@
x
striped
honeycomb
meticulo@@
loungewear
emits
bar
40
10
light
att@@
solvent
due
slip
ated
middle
following
seasoning
pretty
common
entire
wrink@@
pyssla
airism
frames
upholstery
touch
bu@@
thick
blan@@
bath
fairly
bottle
cargo
holder
typical
automatically
motif
ms
sta@@
position
k
42
holds
times
fo@@
relax@@
seafood
rib@@
relax
shines
shortened
stron@@
apart
sq
arran@@
specific
gro@@
waistband
put
mechanism
mornings
buff@@
dust
gu10.400lmwipe
spacious
pie
beautifully
pans
placementfor
sleeveless
cloth.pair
gently
cabinet
groups
armholes
poin@@
savory
stea@@
evol@@
an@@
gh@@
kinds
bir@@
underframe
repellant
open@@
eg@@
matter
facing
remove
lugg@@
ction
sweaty
friends
men@@
arranging
feet
ca
increased
play@@
run
f.freezer-safe.dishwasher-safe
te
tasteful
happy
rod
battery
trichloroethylene.line
motion
plenty
wirelessly
additives
contain
underlay
transports
corn
post
⅓
p
exp@@
sitting
months
midi
med
genuine
black
segments
two
cande@@
clothes
lap@@
ings
throws
controls
blue
knocks
mid
thing
hot
i@@
purpose
shar@@
cloth.shelf
than
chic
classics
sweats
penetration.protect
rights
dar
tured
packed
rose@@
woodclean
dura@@
desserts
scraping
cords
coarse
shing
soon
plac@@
seaso@@
embroidery
cud@@
cuddle
litter
patterns
design
ear@@
pulsating
strips
collection
premium
seams
saving
cozy
may
techniques
patterned
never
writing
ding
reinforcement
wrapped
north@@
familiar
proof
fla@@
fuzzy
dé@@
cooked
bust
butter
locked
bit
that
fan@@
protruding
collec@@
sweets
diffuser
pop
allow
bucket
gar@@
cated
days
cured
undershirt
zink
overhang
volume
ingatorp
fy
trofast
c@@
transporting
versa@@
ush@@
maintains
out.@@
refill
landing
tr@@
tablewipe
curves
dry.dry
preventing
wires
laminate
sneakers
glazing
mother
layering
want
these
lighter
64º
switching
counterweight
improved
ned
mix@@
fintorp
umbrella
flattering
offers
rocking
conduc@@
comfortable
glued
cabinets
‒
member
reflec@@
2
ing
retrac@@
area
orchids
ying
leatherfor
meals
circulation
frying
tilt
chan@@
energy
effortlessly
dishwasher
clean
travel@@
flavor
then
ce
detailed
utz@@
sweden
crispbread
coverto
adults
ki@@
appetizing
eraser
its
uri@@
plants
ts
lasts
blocking
)
management
protected
ment
an
drape
pushing
suits
painted
accent
shaper
dou@@
wall@@
select
duster
ys
fli@@
process
hej@@
forms
viscose
outdoor
item
linens
assemble
tness
bo
32
produced
reduced
dots
business
accommoda@@
seen
dinnerware
hiking
designs
crib
machine
with
tags
more
gasket
herbs
trans@@
85
adjustable
pea@@
radiation
saucepan
bead
salt
pping
round
careful
flower
pre-washed
liquids
widths
wer
bright
planning
similar
so@@
apple
anna
mirrors
59º
ure
ry
inners
mp@@
sub@@
accents
adjus@@
preference
supply
ex@@
divide
ption
view
hairs
humid
reci@@
freezing
secrets
groceries
recycled
salad
throughout
ut@@
clasp
toothbrush
mar@@
coat
core
bag
rustic
cloth.mesh
han@@
man@@
darts
recyclable
roll
hips
exceptional
app@@
cloth.protect
ves
kids
pin
because
dist@@
pl@@
crafted
ed@@
ment@@
midsection
maintaining
freezer
dyeing
nutmeg
chrome
hanging
ingredients
pering
wiping
effectively
humidity
roles
parallel
sn@@
lineup
chambray
nils
cy
ba@@
magnifying
:
rotating
bridal
scents
tumbler
adds
stimulate
logical
symbols
turn
center
shelves
magazine
essential
rea@@
shiny
beg@@
weaving
traffic
part
dinners
self-deodorizing
lightweight
bookcase
molds
generous
flies
old
ning
excess
gla@@
dimensions
da@@
ginger
crank
glowing
washable
oiled
grow
preservatives
solution
frequently
together
pla@@
shes
decorations
easily
water
something
coverdry
customize
&amp;
bur@@
fresh
doll
smaller
flavored
gaps
ies
tomato
flavors
pati@@
färgrik
basquiat
jo@@
sleeping
culture
furniture
regains
low-@@
©
cloths
6.@@
dy@@
shi@@
underarms
choo@@
oversized
smoked
bottom
look
pped
slipping
%
ering
elephant
basics
wells
guests
mirror
sandalwood
flame
wear
except
fashion
ra
ling@@
human
moment
energizing
multiple
opens
clay
machine-washable
grow@@
lions
rating
labels
money
warming
don
sea
custo@@
lev@@
microwave-@@
cream
mark
licorice
tered
80
decoratively
warhol
lie
sha@@
save
hinges
cast
bro@@
hejaren
seasonal
could
scre@@
traces
pp@@
everything
stitch
retaining
clara
gai@@
inte@@
mi
wraps
can
inches
dr@@
foot@@
having
stantly
peaches
tches
rubberized
refreshing
wardrobes
sophisticated
2.4
used
packaging
sh
inf@@
elec@@
tan@@
mor@@
el@@
bedlinen
urs
veneered
underside
handy
wagon
hide
sv@@
accessory
whee@@
cultivation
salads
bleach.do
quarter
impressions
ways
ous
visi@@
to@@
rulers
unload
lace
follows
heavily
dless
fasten
lates
pan
bpa
toes
ns
sorting
ten@@
f
creative
cushions
dently
arts
utrusta
emi@@
car@@
ladder
greeting
melamine
enough
approximately
back
tableware
most
cul@@
twist
e12.2@@
pencils
pper
preparing
5th
plant
variety
leather
coordination
marks
geometric
ttle
satin
cups
updates
cha@@
strip
peek
flickering
weave
dia
hair
pad@@
popular
learn
mer@@
ash
diffused
rugged
allowing
cinnamon
grown
indoor
ker
www
hems
hemming
braided
outstanding
detailing
compactly
immer@@
from
attached
amounts
anyone
catch
casual
rew
appro@@
tched
silver
flexible
absorbing
moist
é
brake
ear
possible
changing
releas@@
ught
formal
swivel
wet
crafts
throw
mites
uncluttered
farmed
penetrating
ori@@
breathe
taking
wal@@
ant
attaching
toasted
rate
adju@@
cake
high.do
fabric
on-@@
until
ima@@
vegetable
hu@@
leaf
ö
dresses
eled
risk
strikes
tal@@
layers
cils
fast
equipped
supple
another
organizer
since
vertically
chil@@
8@@
brighteners
age
replace
sectional
armrests
rin@@
fol@@
sharpen@@
market
produc@@
neatly
che@@
cuffs
bunny
bending
micron
imagine
wearing
balance
sunglasses
pulling
click
deli@@
ela@@
reduces
ss
grilling
moderate
cuff
come
places
keys
stainless
units
mounts
wholemeal
certain
allergic
breathability
is
reheating
draws
mashed
enamel@@
wants
cracking
grace
pull
collections
babies
sewing
chocolate
second
neckline
chiffon
fear
enjoyed
fingerprint
microns
non
clearly
ottoman
dual
ramie
thread
twill
dity
serene
stability
toddle
instance
disney
book@@
scarves
arm@@
w
which
relieves
day@@
heads
telephone
incredible
care
collecting
lar@@
struction
aroma
stable
year-round
serving
brings
mug
even
158
pads
densely
comp@@
finished
skirt
normally
amazing
mode@@
just
velo@@
resists
sateen
durability
chun@@
crease
weathered
vaccuming
spaces
sur@@
invisible
patina
puckering
airtight
craftsperson
ev@@
within
steady
thrive
ho@@
sts
te@@
quest
sloping
bran@@
coziness
beginning
either
be
aside
stir
fasteners
secretary
shortly
gaze
high
openings
blend
opera@@
thou@@
mel
stretch
bra
alcohol
dip
gu@@
pressed
96
technology
seal
many
pointing
ving
am@@
inter@@
were
environment
sticker
presents
stretch@@
pu@@
bb@@
salty
canopy
org
pliers
independently
occurs
length
es
dolls
blueberries
stops
organizers
sti@@
temp@@
tures
super@@
tt
load
riktig
installation
develops
els
flagship
timesaver
wicking
vi@@
sweatshirt
effortless
transform
encourages
bill
practical
in@@
ppy
slender
collar
fiber
flat
split
chain
retract
illuminating
plaid
reversible
ters
f.freezer-safe.@@
suitcase
weight
floral
connecting
drawing
airdots
protect
directions
tab@@
functional
scoop
kind
low@@
servings
liable
accentu@@
sensitive
uneven
inseam
visable
buckle
win@@
botanical
ai@@
athle@@
game
graduated
reduce
kitch@@
slice
poly@@
have
tape
eal
ar@@
known
65
me
walls
b@@
sleeper
distributed
luxurious
trip
bulky
wrinkle
compensate
desired
wipe
refined
luster
random
calves
ty
movement
improving
try
freshly
heavy
taken
color
ged
options
slimming
accurate
cycle
cardigan
profile
quartz
ling
needs
renewable
avoid
seating
sustainable
aci@@
added
connection
hours
assembly
warholfoundation
ventilation
boil
interlining
packaged
creamy
pri@@
berries
fini@@
eat
expos@@
celebra@@
ere
taste
where
not
ffy
material
com@@
responsibly
distance
slip@@
flash
,
technique
blink
pushed
⅝
cycle.do
c.storage
binding
finger
odors
neat
cu@@
unprotected
grains
tex@@
closing
parti@@
mick@@
-@@
ban@@
very
sealing
iron.do
tter
takes
renowned
bags
drinks
sheds
lint
homes
mail
basic
sandals
dry.cover
some
zipper
brass
fingers
textiles
wavy
closes
towel
bracket
loo@@
over
binders
sound
cov@@
ken
plug
new
protection
done
impro@@
craft@@
range
plates
areas
available
delicate
remain
use@@
portable
ve
daybed
depen@@
lifelike
green
19
dries
cacao
professional
sauce
head
deciding
to
inviting
problem
jogger
processing
agreeable
watt
ery
remover
accompanying
chocolates
means
years
plain
cloth.@@
dampen
bra@@
book
protectordo
beer
approved
sand
moistur@@
next
playwear
almond
suppleness
pasta
brand
inc
leftovers
aims
95
them
ther
-neck
wearable
c
wax
enjoy
ded
eas@@
7@@
shut
tilted
treated
bun@@
trichloroethylene
outside
effective
trouser
lefto@@
fair
effects
do
finest
bonded
solid
brightening
girls
windows
replacing
per@@
compact
thirst
net
inserts
masculine
coo@@
after
backrest
tri@@
hose
brackets
freezer-safe
infuser
ward
ja@@
regularly
underneath
e12.200lm
irregularities
ble
ft
slub
coated
fold
section
thicker
package
width
wash@@
ribbons
proportion
clean.sleeper
ons
col@@
des
kid
chargerunplug
corrosion
balcony
ball
equipment
stitched
rty
cushionmachine
mb@@
harmless
full
unlined
sort
le
ab@@
the@@
discolor
ja
herring
flow
moderately
ribb@@
layered
change
rain
placement
leaves
wings
400lmwipe
terry
drain
thanks
prolongs
spor@@
mu@@
skills
als
society
reflect
edging
steps
meet
snowfall
mulled
bow
under@@
rac@@
instructions
being
games
ass@@
parts
sticks
lize
adjusted
city
folds
optimal
berry
about
organizing
ride
wh@@
gir@@
colors
lor@@
activities
hanger
cork
providing
carrying
exposure
ter@@
out.armrest
lamps
non-abrasive
shortbread
la@@
provides
hiphu@@
door
me@@
ey
blown
spacing
heart
volu@@
knitted
damper
fire
flat@@
th@@
len@@
clips
orts
maximum
crispy
lowers
need
real
squeezed
usu@@
af@@
spruce
tear
vege@@
conto@@
snap
maybe
da
reflectors
rn
damaging
outs
dressy
corner
pressing
wa@@
oxford
firm
hygienic
bel@@
ei@@
300
heel
crisp
regula@@
shoe
smartphone
get
variation
dirt
fond
and
covr
portion
trays
into
ttering
stools
fixture
zippered
newborn
drilled
baghand
combines
cart
6@@
turned
lays
minate
wall
boat
oz
skurar
crossover
re
remote
bed
showcases
cleaning
own
jea@@
beautiful
complementing
window-cleaner.wipe
easier
slides
bottles
handcrafted
belongings
picnic
potty
ess
station
traditional
incorporates
treats
outerwear
forget
works
type
accentuated
pillow
aren
version
fennel
delica@@
follow
cheeses
felt
00@@
inventing
ally
regulate
upda@@
shades
meas@@
vision
cran@@
temperatureminimum
balconies
hooded
gateleg
furniturestore
stubborn
hy@@
rotate
sec@@
toy
nougat
act
blocks
pack@@
included
vy
beech
tie
fix@@
signature
slick
bunch
case
ca@@
ideal
dense
toe
able
kor@@
eting
perio@@
henriksdal
whi@@
sions
leds
tool
spices
sliced
tmachine
low
curtain
simply
fec@@
prepare
shelter
inst@@
rais@@
weather
tucked
people
regulary
straight
min@@
ation
dy
cele@@
!
15@@
perfor@@
dispenser
lining
coverclean
pul@@
protector
algot
expression
detergent.professional
metal
separa@@
thoroughly
hjärta
tching
dry.iron
seamless
chunky
once
ele@@
gi@@
welcoming
label
™
my
latex
bird
dish
der@@
upside
denser
supplies
onions
worries
tomatoes
blanket
oily
pastel
too
box
allows
rands
underbed
vie@@
far
mul@@
ponte
pens
cooktop.suitable
optional
add
ro@@
stuva
then.handwash
whichever
vanadium
preci@@
lingonberries
stationary
twice
zed
house
playing
storage
sensor
mottled
further
cycle.@@
sugar
sofa
vibrant
substantial
during
knife
file
lled
ges
air
starts
film
glides
hobby
recommend
grain
por@@
motor
nothing
indentations
construction
thro@@
stimulates
standards
object
anywhere
really
occasions
ge@@
runners
ultimate
sheer
d@@
timeless
smoothly
versatile
cakes
l
preserve
buttons
d-@@
26
measure
important
faster
asymmetrical
cashmere
wea@@
gussets
preferred
l@@
expands
utz
extensive
mini
bleach.tumble
distressed
ansluta
sit
ars
bone
baked
abrasion
paddo
temporary
z@@
lines
raised
le@@
exterior
waffles
railway
ton@@
accented
hemmed
deodorization
fruit
thy
cooktop.oven-safe
(
clothing
ef@@
insert
tidy
highly
tab
seagrass
ens
ensures
overall
heating
crane
sal@@
muffins
4@@
shel@@
luggage
wood@@
rebound
ping
g
crown
possibilities
renew
caps
low.dry
lyocell
coverprotect
gra@@
ess@@
discs
stearin
us
wild
equally
fiberboard
eye@@
nyboda
street
count
cheek
indi@@
fluffy
catches
soil
chandeli@@
breathes
sponge
na@@
reverse
pastries
tighten
marathon
ankle
extension
seated
nic
source
truck
off@@
cord
thers
slips
pes
bringing
shed
behind
casts
conducts
burned
am
deta@@
stard
those
out.back
threads
conditions
today
sleeker
tanning
accu@@
positions
pick
seals
fyndig
we
teri@@
ren@@
embracing
pattern
won
legged
again
workwear
plays
prevents
manu@@
all
over@@
er-@@
kivik
super
vels
cular
ingredi@@
pulled
laptops
dirty
your
cordless
daily
baking
calcium
coverlight
sun
odor
chal@@
adding
ob@@
stemmed
who
woven
created
imp@@
ripe
ultra
harsh
0
ge
moves
ph
bs
functionality
posture
also
much
will
crepe
replica
suction
go
quicker
interior
canvas
anything
bend
rest
stationery
beverages
adapt
handbag
three
pancakes
tabs
focused
barely
wallet
disposable
unk
sel@@
coverage
even@@
improves
featuring
placket
vari@@
dreams
ent
silhouette
mischief
ks
ck
combination
yogurt
connected
favorite
uni@@
beam
original
toggle
closer
man
slim@@
pe@@
sustainability
rattan
organize
sections
perfectly
et
function
almon@@
large
finer
travelling
directed
plastic
pallra
lockable
lly
tch
accompaniment
focus
box@@
live
app
tai@@
form
bedroom
laptop
cleaner
narrow
miniature
cardamom
night
microwave-safe.@@
match
extra
ach
shelf
smart
wake
dar@@
tes
brought
retention
fish
ends
tapered
minimum
neck
picture
pen@@
equal
card
combed
den@@
source.location
best
ral
din@@
rear
tations
ice
122
anklet
some@@
ll
glasswipe
stores
tools
stra@@
dome
tiles
removed
fade
shapes
result
met
draped
collages
enjoying
wheat
dama@@
burn
dishwashing
/
fisher@@
heartbeat
sporty
fixed
pad
tin@@
location
been
skinniest
steel
amount
ö@@
tightly
ted
built
multi@@
or
convert
dimensional
ness
india
ergonomic
bottoms
coverall
jacket
fits
svarts@@
abrasive
fabri@@
charac@@
pers
exotic
relieve
production
doors
ship
rly
coversteam
slanted
larger
looking
various
yar@@
molybdenum
ties
softly
4.6
addition
skirts
vacation
superb
freedom
b
drilling
saves
liners
rich
itself
sofas
direction
heattech
lls
tal
feel
less
im@@
supports
racks
visiting
despite
higher
expresses
across
speci@@
sliding
lounge
sleep
corners
out@@
performance
exercise
vackert
files
expan@@
lunch
mless
piles
adjusting
scrub
ärta
left
leaving
el
dim@@
subtle
raw
vary
briefs
few
join@@
calculator
side
vers
consistent
thinner
seg@@
inch
padded
decoration
shower
jute
needed
seat
crisp@@
exact
store
lit
cloth.wipe
release
towels
tage
comfortably
knee
tamper
jackets
minutes
cycle.iron
mild
organic
great
st@@
u@@
workers
quickly
children
grip
spla@@
substances
lea@@
remains
sterilize
washed
unmatched
scouring
presenting
flowing
lä@@
story
tro@@
hugs
ging
headed
trunk
thin
prevent
short
hugging
sturdy
grooves
watercolor
tell
ght@@
mate
rolling
insulating
cook
gray
securely
sparingly
iness
homemade
string
sleeves
seeing
&quot;
mattresses
mize
concentrated
distribute
blen@@
tted
gic
daylight
smallest
clean.protect
processed
uprights
lumbar
beads
star@@
upwards
brushing
ines
color@@
washcloths
adventure
settings
fiery
goes
legholes
.water
sharp
crumble
sounds
spinning
padmachine
cloves
harness
horizon@@
loved
tastes
colorful
ining
mmed
veneer
heat
nighttime
footrest
acquire
pan@@
®
stan@@
soapy
etc
hin@@
silky
integrated
our
every
alarm
eyelets
holders
longer
outer
lies
media
fitting
results
feels
with@@
gathered
utensils
leaks
heartwood
urge
completely
grained
ils
sli@@
th
ough
iring
uses
snacking
falls
sight
prefer
sewn
calming
staple
candle@@
ls
fruity
artists
angle
collect
started
only
ears
cloth.mattress
pure
beneath
jects
v@@
write
candlelight
shape
tw@@
coast
pilling
bodysuit
par@@
mix
magni@@
lip@@
mol@@
bulbs
has
papers
hur@@
accor@@
acquires
raisins
comfort
of
attach
irregular
carbonated
ating
sk
injury
frost
foundation
west
sb@@
growth
theme
rubber
kes
tablet
toasty
g@@
install
knives
spot
wn
flatter
elastic
.@@
sheeting
y
sandwich
fur
nut
bowl
pro@@
free@@
containers
low.do
powder
blind
toddler
whipped
charge
stuck
wherever
darken
3
pillowdo
ray
explor@@
cocoa
semi
per
unisex
merino
surfaces
00lm@@
cool
expecting
bathroom
connec@@
secure
red
connect
brochure
desk
waistline
repellent
toymachine
concentration
touches
code
12
ware
reflective
lighting
nee@@
tions
pale
lead
sat
pillowcases
necessary@@
handers
fibers
reach
limited
separated
clou@@
nook
afterwards
blacking
wardrobe
untreated
enhances
blade
distinctive
indigo
warrranty
bed@@
weights
steam
molded
asleep
clamp
v
often
baby
necessary.wipe
mel@@
ders
retained
not.microwave-safe.freezer-safe.dishwasher-safe.leave
8
incandescent
foldable
uplight
uniform
answering
traveling
stands
edge
clean.vacuum
buy
fats
shopping
sauces
duvet
ci@@
love
var@@
dining
normal
cleaner.pull-out
work
fun
extended
uld
any
poncho
feathers
unlit
families
continues
embroidered
chair@@
shampoo
training
saffron
100@@
pa@@
cre@@
toxic
increas@@
maximize
yours
stand@@
chopping
guardrail
teeth
field
flooring
backs
it
temperatures
solu@@
tical
ts@@
fresh@@
storing
reading
slightly
when
track
protecting
shoes
drinking
convenient
relief
shell-look
fried
ly@@
leg
hem
sco@@
ul@@
faced
dishes
monsters
ld
in
matches
purchase
cas@@
tins
both
fly
contours
deni@@
ghts
quick
woo@@
clean.stretch
cable
through
especially
vacuum
imitating
ood
personalized
ger
strawberry
sweat@@
soup
ture
meal
condi@@
memorabilia
raglan
carry
durable
thinking
ofantligt
prolong
hand@@
accommodates
22
occur
combining
or@@
last
sisal
christophe
era
sprin@@
cooking
combined
grated
w@@
enable
º
trains
sil@@
general
heels
electrical
waisted
farming
dark
airflow
dye
diapers
lowering
chests
ring
adult
garden
extend
heal@@
hard
busy
terrycloth
mber
kno@@
coll@@
cs
valet
gula@@
velvet
accessor@@
recessed
windproof
sprz
endure
roo@@
mind
handle
rounded
rye
c.do
salted
curtains
coa@@
pull-out
ten
harm
hall@@
pile
why
watering
narrower
claws
start
excellent
no@@
artwork
contrasts
winters
drawn
shaping
clu@@
polyester
max
snack
including
liningmachine
looser
adapted
tion
lower
ru@@
headboard
hole
cute
dream
wed
rice
vo@@
stains
featured
ka
upf
lab@@
di@@
cli@@
carafe
trichloroethylene.@@
dyed
msc
tights
nature
toot
sources
however
ths
downwards
highlight
back@@
decorative
disturb@@
insula@@
tealights
filled
the
properties
pillowcasemachine
nap
transparent
meatballs
gentle
collage
dressings
stretches
waterproofing
chinos
fragrance
gardening
multi
estate
undo
ven@@
distributes
mes
dal@@
eket
feminine
en-@@
call
covered
00lm
loaded
adi@@
supima
nel
eyesight
anti-odor
use
relaxing
fuel
54º
-washable
candlestick
?
loads
set
countertop
build
dog
mood
nice
teenager
dimensioned
running
casters
cloth.clothes
collar@@
trichloroethylene.storage
fancy
directional
ease
distinguish
switches
twi@@
magazines
out
window
rustproof
outgrow
art
closed
monitor
loveseat
wad@@
climates
;
cowhide
fill@@
think
things
minimi@@
detail
brushes
contra@@
turning
rinsing
fra@@
anti-microbial
beds
cushion
complete
spot.professional
bustline
loose
icing
t@@
uniqlo
types
stickers
adhesive
licensed
response
agave
outwards
wintertime
viewing
coffee
row
dot
dogs
jacquard
candle
needed.always
crawl
knees
impression
concealed
ants
chairmachine
ff@@
cra@@
lingonberry
outdoors
at
rent
teboard
thumbholes
distre@@
cking
name
boxes
ri@@
replaces
cling
apples
four
sible
darkens
exten@@
curve
sizes
å@@
for@@
cards
ausonia
basi@@
atmospheric
kills
watch
cases
rack
microbial
¾
season
always
cap@@
gateway
glare
gifts
around
tin
does
pepper
late
straps
clean.@@
zz@@
coverdo
phone
solutions
dete@@
lacquer
sca@@
inner
browns
spread
creativity
gracefully
lift
climate
gingham
ikea
zones
busunge
21
shirred
dry.vacuum
adjustment
separate
trend
eating
containing
chin@@
air@@
spandex
aromatic
&apos;t
preserving
switched
demands
paired
woodwipe
becomes
bun
point
sk@@
quite
sustainably
jam
fika
gre@@
squee@@
regularly.professional
sunlight
mir@@
jar
35
solution.wipe
medium
4.8
valve
quilted
sleeps
sleek
ec@@
pajamas
wo@@
100
wellington
alike
little
briefcase
trådfri
chino
trellis
iron.dry
exceptionally
blouse
regain
friend
combat
working
christmas
lightly
v-neck
applying
slats
bal@@
collects
ue
hood
waffle
as@@
cleaner.clothes
piping
ved
fil@@
li@@
ds
hangs
iron.line
finials
pax
sanded
mis@@
traditionally
disa@@
ski@@
restricted
foot
sweetness
tops
remember
you
fs
.iron
belts
induction
coin
drafts
personal
ali@@
sweatpants
individual
animal
saucer
der
hall
25
hung
hip
so
trinkets
kept
consu@@
cr@@
bar@@
shine
watching
filters
permanent
circulate
cap
safety
drainer
wash.machine
template
arm
tened
painting
pot
ön
nuts
wages
tren@@
hon@@
shallow
according
trousers
check
um
a@@
lemon
washing.do
should
warm
j@@
kuggis
gas
ney
rib
soft
expec@@
compared
mbo@@
window@@
kurabo
vertical
tru@@
vanilla
pillowcase
opening
hook
provide
utility
ell
inverted
ched
ju@@
based
capacity
tas@@
comforting
stain
bi
require
slim
sp@@
good
strea@@
birch
wor@@
rayon
quality
backside
wireless
mer
whenever
biscuit
sten@@
.do
backpack
pocket
avenue
useful
nets
hands
under
activated
imagination
stor@@
lying
ben@@
like
upward
mental
worn
mean
cookie
bi@@
slide
place
sportswear
friction
vegetables
crea@@
ee@@
spun
pairing
inn@@
angles
pillow@@
spi@@
operated
47
reliable
ckets
bathrooms
variations
clean.back
phthalates
special
cru@@
high@@
clamps
contact
clean.line
objects
maintenance
craw@@
height
expansion
leathercare
size
sing
build-up
trimming
mat
find
usly
dowel
bow@@
advanced
lock
hangers
wrinkled
grips
invi@@
wadding
same
space
folded
tweed
rhyth@@
emit
evaporate
sion
displaying
mally
hang
would
shell
safer
centers
chalk
filling
pressure
tight
crates
ard
gradient
attention
off
outfits
waste
pumps
course
50
wiped
revolutionary
sol@@
ful
ordinary
re@@
bulb
lantern
famnig
quencher
wire
scarf
mal@@
warp
hidden
carpet
fad@@
acids
leash
collared
synthetic
retain
cross
up@@
ribbon
depth
marinated
ly
craftspeople
hi@@
enameled
along
venti@@
400lm@@
single
as
water@@
e
rou@@
loves
metalwipe
contents
p@@
umbrellas
spout
pur@@
gingerbread
c.dry
breas@@
grinder
opened
stripe
komplement
tempered
removing
taped
clean.shrinkage
crackers
sleek-@@
museum
food
=
tly
leathervacuum
slipcover
wash.do
ribs
what
listic
ensure
desks
plus
matte
teflon
environmental
ber@@
resi@@
cover
foam
un@@
movements
compartments
top
fabrics
basis
root
fatty
rail
functionsonly
but
everyone
r
chemicals
hel@@
ors
non-removable
freely
absorb
main
realistic
upright
1@@
infor@@
shaped
bedspread
out.sectional
individually
personally
sunburn
consume
h
rise
consumes
hub
printed
stretchier
unpleasant
pas@@
world
number
ran@@
condensation
oranges
end
comfy
colander
pi@@
heavi@@
skinny
guide
covermachine
structure
gging
appearance
chi@@
time
generation
maker
lifewear
oc@@
ates
replacement
socks
nylon
served
fat
dissolving
reminds
artificial
⅜
innerwear
leek
jewelry
safely
sprink@@
creating
ra@@
pre
slowly
fi@@
high-@@
health
cubes
leisure
wrists
recommended
innovations
cara@@
include
trest@@
shirts
sho@@
harmful
st
towards
organized
en@@
lambs
detachable
hol@@
tv
toppings
undone
coating
headrest
su@@
hooks
phi@@
handwash
arrange
kallax
locking
requires
cks
up
vacuuming
spring
ath@@
11
r@@
platinum
t-shirt
ir@@
suspension
spreads
e26.@@
withstand
soci@@
ounces
textile@@
family
encoura@@
sof@@
nor@@
combine
standing
ester
shir@@
ages
mounting
join
tur@@
potatoes
steak
es@@
oven-safe
acci@@
pota@@
attaches
rolls
crotch
recommended.dry
glow
struc@@
dimmer
grind
inspiring
do@@
skims
squea@@
scaring
slit
besides
18
eyes
sweat
ripened
pet
yet
bla@@
drawings
combinations
costs
step
du@@
how
coded
bedding
by
updated
brush
oe@@
con@@
surface
rubbing
coordinate
mails
strings
deteriorate
sides
attractive
certified
train
ha@@
grill
cur@@
racer
black@@
joseph
decorating
stays
handles
scra@@
dable
pon@@
cloth.pull-out
lasting
white
stre@@
clock
day
13
worry
lemaire
bin
converts
um@@
making
chilled
ke
restful
breasted
tall
enhancing
trichloroethylene.mattress
rasp@@
sity
oa@@
dampened
tter@@
⅛
clip
legs
batteries
lon@@
pos@@
counting
room
constantly
cushion@@
books
leggings
carefully
magnetic
lamé
cket
method
thickness
textile
keeping
sense
draw
trichloroethylene.back
read
protectors
27
outlets
gers
flu@@
kicked
kit
show@@
zi@@
dishwasher-safe
pen
evo@@
yoga
shows
senses
smo@@
coming
brushed
2@@
slippers
was
functions
innovative
made
sh@@
levels
surroundings
cedar
racerback
ham@@
ma@@
conver@@
overview
dimmed
unused
period
minimizes
cleaner.@@
sor@@
if
eye
toys
self
he@@
ps
cooling
choose
solution.maintenance
hiphugger
kitchen
thes
fastener
floors
1
loops
inc@@
lifting
id
makes
snuggle
sw@@
launching
glossy
gentler
finkelste@@
tte
ins
tee@@
+
lu@@
recycling
・
block
chill
items
preferably
se@@
sandpaper
hun@@
firmness
fruits
galvanized
cott@@
rinse
bo@@
furnishings
guish
sets
tracks
regardless
swi@@
reduc@@
faucet
feather
tough
creates
fin@@
que
heights
cami
rims
º@@
york
gus@@
social
cooler
square
role
see
office
origin
series
max@@
dry.@@
ver
ylen@@
doesn
arch
andy
trap
shu@@
sink
delicious
riding
blackboard
spotlight
cycle.to
submerge
chairs
