<unk>
<s>
</s>
decide
casters
tanned
quite
adhesive
tracks
mal
with@@
things
c.storage
bow
cr@@
complementing
reheating
crib
um
umbrellas
col@@
meat
windy
quickly
calen@@
contouring
flame
studi@@
tching
heights
handles
ty
di@@
choice
require
seats
nets
durable
tical
version
hy@@
organizing
tags
coated
spacing
zed
harm
blouse
compact
saucer
classic
usb
volu@@
airing
ingredients
railway
tas@@
brush
grin@@
pull-out
now
repellent
costs
inspired
pul@@
baked
waffles
switched
summer
bedlinens
toasted
consume
goo@@
accommodates
cuddle
ess
mon@@
heavily
plain
fac@@
moss
recommend
pi@@
fe@@
stationary
cold
expec@@
bleach.tumble
stre@@
cards
inc@@
&apos;t
charge
ill@@
time
openers
frames
humidity
dar@@
retaining
cutting
finkelste@@
ggle
microbial
toxic
head
every
useplace
cord
trichloroethylene
framewipe
fine
ades
accented
rinse
bergamot
wiping
spotlights
chenille
strong
ght@@
continu@@
together
emp@@
shawls
fasten
keys
tch
ars
mea@@
™
outstanding
evol@@
sible
wet.shrinkage
cartridge
ribs
cup
rounded
layering
fashioned
tins
he@@
out.sectional
neighborhood
tiny
wire
baghand
submerge
cloth.wipe
x
raw
metalwipe
mesh
properties
pencils
side.do
recommended.dry
bow@@
ment
grinders
used
house
daily
stain
curl
knobs
sturdi@@
ju@@
slides
serene
adding
cloth.door
bath@@
combination
stretches
traditional
barely
adjustment
stem
little
mobile
hug
ft
behandla
adjusting
glasswipe
freedom
distribute
sili@@
itself
striped
performance
slept
clips
plenty
crewneck
loveseat
completely
countertop
140
%
additional
vanadium
homes
fairly
sk@@
cooktop.suitable
touch
ground
sing
member
ys
rims
distributed
thyme
refill
feature
creating
open@@
hea@@
discs
ul@@
smooth@@
(
rain
memor@@
knee
wi@@
made
ws
cloth.protect
textilemachine
nyc
ease
!
ar@@
twi@@
on
sq
stuva
fuzzy
christophe
bus@@
sizes
bedspread
uneven
coo@@
sustaining
dine
cozy
tights
dampen
bed@@
retained
ela@@
sweats
dri@@
burn
yoga
works
res
airdots
slippers
ex@@
working
chests
retain
chiffon
falling
furniture
snaps
vertically
airtight
grow@@
seconds
weather
dry.do
lifting
dable
piping
beats
eliminate
bed
watching
den@@
crew@@
nee@@
artwork
make
taste
cushions
than
bustline
inner
ry
optional
processing
slice
sold
stearin
dinnerware
jeans
whole
cycle.do
grained
upholstery
live
ankles
clip
rocking
curved
requirements
due
occasions
part
cookies
inviting
much
specific
logical
cases
shallots
grips
planning
vanilla
poäng
polo
firmly
advanced
ov@@
shatter-resistant
sweetness
ho@@
lantern
cakes
tra@@
fri@@
fashion
ding
workout
met
compared
jour@@
tops
combining
t
trofast
transporting
alcohol
else
push@@
looking
tealight
only
smoky
a@@
must
click
extra
against
bright
stacked
textiles
stained
monitor
gathering
overnight
duster
luster
toy
dig
cool
swivel
flat.do
1
teri@@
addition
ne
charm
6
henriksdal
gh@@
squeezed
planet
-neck
families
switching
beacause
tcher
leng@@
rated
4.6
minutes
da@@
back
paddo
wash@@
ten
guide
surroundings
rotating
trådfri
broken
crum@@
sterilize
selec@@
drawstring
interlining
center
eason
grilling
airflow
boxer
labels
richness
tosterö
rice
ran@@
behave
below
being
sure
filters
adults
indigo
man
top
pe@@
scra@@
4-seat
hearing
groups
bro@@
midsection
cally
shampoo
background
stoo@@
irregularities
daylight
integrated
&amp;
ness
dark
half
zippers
salmon
seaso@@
legged
pajamas
thick
umb@@
reduced
double
support
dyeing
shaped
indentations
off@@
gai@@
color
guish
craw@@
music
-@@
like
shut
collecting
te@@
convenient
contact
ham@@
combine
moved
crisp
outlet
blankets
activities
fyndig
trouser
tex@@
lish
chicken
spicy
14
ger
selvedge
stitchless
crispbread
sleeps
colored
decorating
signature
alco@@
ang@@
vivid
fre@@
6@@
ged
rou@@
preservatives
fits
cheek
flagship
drilled
underneath
resilient
lounges
put
masculine
maintain
swea@@
beige
harmonious
contain
brand
stimu@@
sta@@
roll
era@@
alk
longer
lab@@
designs
then@@
generous
leaves
length
removing
cks
mind
exotic
su@@
walls
fintorp
twice
expansion
protecting
thoroughly
caramel
optical
omlopp
dope
shelter
ward
recycling
pattern
moist
brigh@@
motor
easier
waistline
dressy
withstand
knots
sweatshirt
down@@
consumes
d-@@
climate
59º
ledge
napkins
cer@@
noise
shallow
sugar
table
all
blackboard
anodized
ef@@
wn
starts
oring
mu@@
onto
italian
breathable
thers
position
known
estate
shifts
accessories
curve
feeling
rye
coverdry
es
ta
likes
melamine
ima@@
sitting
blueberries
individually
connec@@
slicing
b@@
scrape
fats
drop
han@@
dividing
bulb
veneer
led
untreated
consu@@
158
distur@@
presents
help
living
protector
mid@@
thins
ea@@
lev@@
wa@@
ri@@
21
styling
elastic
dirty
peek
stars
percale
panel
mol@@
soapy
embroidery
54º
zipper
hoodie
lighting
takes
presenting
candlestick
reduce
excellent
paints
normally
warhol
wearer
sh@@
hygienic
beech
pad
le@@
needed
dry.cover
linen
marinated
utrusta
thanks
positioning
legholes
wise
dimmed
pocketable
ppings
sat
stress
portable
removed
miles
bill
brighten
teeth
allow
drainage
gger
nap
walnut
bear
saucepan
whi@@
dyed
collar
laminate
ultimate
molybdenum
cu@@
remains
angled
flavor
ming
stored
ca@@
imagination
ability
collect
sport
agreeable
tree
stands
ten@@
activated
sive
velour
reflec@@
tru@@
quicker
buff@@
fla@@
ripe
directional
pack
slub
raglan
vari@@
glued
ena@@
wider
lets
hurt
bio
beneath
fashionable
pepper
temperature
shape
layers
wardrobe
ors
conver@@
books
lay
glare
cov@@
back@@
sink
tan@@
cheeses
leftovers
scrub
push
homemade
reflectors
with
seating
heel
draped
shaping
hook
frosted
warholfoundation
e12.200lm
releases
humid
5@@
sea
beer
mild
washed
amazing
diapers
functionsonly
sash
night
ue
meatballs
lies
ves@@
fixture
farming
woo@@
roo@@
mach@@
recommended
course
hood
480
phone
tters
reflect
full
feels
catches
c
seal
plank
servings
confidence
er-@@
watercolor
locked
ausonia
other
device
closer
locks
tips
not
dries
game
sit
extension
which
ste@@
bra
anti
tub
history
silhouette
corner
effects
liningmachine
number
laptop
cloth
drier
winter
book
dar
stronger
flowers
s@@
occurs
ajar
garden
saving
scraping
cs
bla@@
washing
this
/
walking
cott@@
transparent
featured
finish
re@@
pressure
ush@@
able
gic
elephant
chopping
brought
dense
poking
tion
thin
then.handwash
iron.line
mel@@
brackets
burning
lar@@
coordinate
resistance
wal@@
scoop
8@@
dried
5
urge
reliable
deni@@
salted
rearrange
shirts
world
ears
eyecatcher
relaxed
wh@@
need
bottoms
hinges
skinny
cinnamon
wraps
adjust
solution.protect
flattering
painting
spandex
yet
solution.wipe
option
growth
hun@@
beating
some
standards
regularly
sisal
highly
mi
.do
airy
ner
ved
wicks
after
ke@@
snacking
tly
els
cups
treatment
small
tmachine
4@@
lying
unprotected
detach
shoe
sauces
mounted
sl@@
computer
clo@@
wrinkle
crisp@@
displaying
aluminum
lack
exposure
drainer
e12.@@
focused
cloth.4
deep
slick
cor@@
trichloroethylene.line
lots
inspiring
tilted
us@@
taking
dog
stan@@
tightening
amount
install
forearms
dividers
wooden
candy
usly
services
coverall
posture
inst@@
layered
style
slats
tear
mmy
spec@@
effectively
out@@
upwards
mic
stretch
lowering
ker
trichloroethylene.storage
thicknesses
que
tumbler
snow
waistband
amounts
drinking
bar
par@@
hang
blan@@
nighttime
contra@@
crease
hole
pretty
cultivation
moti@@
arts
chi@@
hall
putting
reta@@
quil@@
packed
fleece
separa@@
milled
-style
side.@@
use
abrasive
handy
themselves
design
plant
acids
distressed
moves
95
mashed
highlight
versa@@
cas@@
ed@@
fastness
desks
balcony
whipped
collar@@
darkens
forests
ass@@
trap
both
timer
min@@
clean.shrinkage
of
machine
chan@@
ey
pots
clean.@@
covr
reinforcement
uprights
stea@@
out.@@
sauce
bent
technology
cked
lighter
headed
sleep
material
flex@@
horizontal
tuned
check
cloth.daybed
accompaniment
fond
general
wadding
san@@
ins
screws
balance
construction
changing
outlets
stay
expands
vers
box
inches
door
further
ge
supports
scarf
djuparp
combined
reflects
pos@@
sleeker
suitable
n
sen@@
pocket
food
cycle.iron
airism
minimal
lead
10@@
find
vintage
drink
tasty
playwear
direct
oni@@
following
cushioned
quartz
cross
public
highest
synthetic
coat
delicious
bles
padding
4.8
not.microwave-safe.freezer-safe.dishwasher-safe.leave
extendable
eable
seeds
mag@@
flexibility
ble@@
mis@@
sportswear
less
series
dou@@
under@@
desserts
sor@@
produce
soiled
porc@@
included
chunky
ds
leds
vidga
woodthe
kept
foods
ele@@
detergent
for
vegetable
sets
rattan
shutting
present
handmade
opti@@
portions
iconic
socialize
training
hugging
smoother
sides
crafted
po@@
renew
ke
li@@
maintenance
ra@@
turtleneck
soon
late
cake
improve
acquire
grasp
iz@@
ro@@
preferred
normal
plac@@
covered
quilting
before
lts
1@@
bpa
ber@@
fridge
practicality
se
swee@@
ff@@
ght
child
taken
collects
wake
underframe
repellant
hard@@
thrive
midi
human
coverlight
ci@@
within
dish
ray
ments
burden
pet
kee@@
go@@
too
flowing
realistic
pairing
pressed
meets
glasses
tin
berries
changed
sight
during
basics
personalize
risk
bulk
º
men
hi@@
throw
beach
extend
ous
a
minimi@@
ou@@
volumes
protect
northwest
practices
nut
ings
was
ur@@
19
pliers
blen@@
transport
sca@@
access
foam
fold
improving
saffron
ant
deci@@
blended
simply
ways
friends
areas
feminine
mp@@
worries
ses
star
reverse
off
el@@
baby
por@@
bil@@
wholemeal
ough
closed
unisex
50
squ@@
ceiling
disassemble
per
ge@@
spot.professional
workers
fruity
mixing
22
separated
placement
heating
compartment
another
hardwearing
war@@
diffi@@
tee@@
wrinkling
allowing
eyesight
leaving
preparing
stubborn
butter
e-@@
tough
trans@@
outdoor
authentic
up
grass
cande@@
sation
evaporate
oxford
handers
teflon
lmdust
lineup
drips
lukewarm
saves
expan@@
honeycomb
type
build-up
tter
accompanying
chocolate
harder
strings
beautiful
warming
me
trimming
yar@@
clu@@
mixture
straight
sweat
accessor@@
coats
cheese
sticker
absorb
efficient
alarm
comfort
bearing
kaihara
oven
lower
global
platinum
seals
along
bench
size
fading
fra@@
cocoa
lifewear
most
york
thickness
power
soaked
trunk
withstands
char@@
loo@@
factor
will
sole
why
spray
tch@@
dryer
spice
corners
jewel
valet
pillows
closets
quick
ribbons
sewn
bottom
unload
clea@@
toe
bags
bucket
gar
seated
stretchier
flavors
pillowcases
cy
meter
approved
dinners
varying
safe
closing
neat
file
pie
biscuit
warm@@
customize
pan
flat@@
tment
quarter
bumpers
toddlers
reci@@
anna
85
sunlight
long@@
neckline
cleaner.@@
suspen@@
ne@@
including
draws
blowing
tastes
harness
c.iron
preventing
fitting
change
coverdo
eas@@
ti@@
zes
stiff
n-@@
chill
loose
adds
wipe
cart
flu@@
kurabo
senses
variations
waste
business
drea@@
gloves
never
mless
o
gri@@
ping
stability
plus
industrial
mischief
clou@@
upper
distinctive
terms
&apos;
square
grill
tested
inserts
medium.do
docu@@
7
el
e12.400lm
climb
backing
ach@@
ur
traces
p
quality
25
23
stack
acquires
tte@@
jam
fiber
tt
asc
un@@
ck@@
wet
provided
arrangement
holes
innerwear
renowned
zier
passport
bes
sol@@
win@@
you
hol@@
pollen
tin@@
grinder
spin@@
magnifying
everywhere
edge
pilling
metal
oak
weathered
arch
hose
plated
bonded
billion
clean.line
carpet
management
deodorizing
work@@
ral
cushionmachine
ö
3-pair
toothbrush
rust
raised
securely
pictures
steps
condensation
chargers
sits
tall
shaper
40
dye
c@@
own
magazines
chandeli@@
suited
techniques
sparingly
arm@@
berry
slight
bite
necessary@@
settings
c.do
y
moistur@@
pose
minimalistic
painted
softly
crackers
steel
wheat
nordic
binding
gaps
rows
assembly
cran@@
lie
such
penetration.protect
feathers
mulled
sprin@@
cook
ting
woodwipe
best
privacy
dampers
placed
p@@
chil@@
litter
industries
shu@@
field
tter@@
bend
strap
mate
seam
na@@
uri@@
dry.dry
balconies
aftertaste
fad@@
drinks
turning
vent
reduc@@
depending
evo@@
zippered
lavender
ining
gi@@
teenager
nutritional
lids
ribbon
tool
started
60
dy@@
coming
orchids
hard
silently
comes
nicely
mp
detail
cooktop
hems
be
then
sinks
jute
last
finer
usbs
bases
remove
tablet
baskets
button
infuser
dura@@
pairs
twill
preheat
desired
essly
fec@@
over
fit
tech
bility
fied
feather
beautifully
folds
interior
makes
containers
hugs
finely
bikini
circulate
comfortable
office
lly
velo@@
briefs
twist
chic
shiny
proportion
bi@@
hiding
carafe
connection
ingredi@@
sounds
left
ramie
leathervacuum
pad@@
custo@@
use@@
pp@@
tired
marmalade
drawers
while
ney
between
lan@@
bunch
next
smoo@@
angles
pencil
ac@@
grows
mon
gas
birch
improved
enjoy
tage
supply
crossover
ride
bran@@
cloth.shelf
pped
hand
skims
viscose
occasionally
others@@
city
sprz
welcoming
pens
rub
ces
ks
sofa
cushion
gifts
slip
prepared
timeless
complete
innovative
cud@@
wild
radiant
sten@@
fix@@
sour
port
confined
hot
flavored
wirelessly
ever
leave
wires
craftsman
its
transforms
replacing
track
appearance
lt
handbags
classics
wintertime
according
count
packaged
gro@@
block
fisherman
modular
jar
substantial
kuggis
wireless
evenly
adjus@@
imitating
hjärta
controls
e12.400lmwipe
main@@
andy
spacious
brush@@
showcases
oily
doors
careful
ni@@
duck
objects
sunglasses
smo@@
mug
sli@@
few
headrest
tting
lea@@
so
contains
fi@@
ca
to@@
concentration
finest
coffee
band
uses
meet
sorting
hand@@
mm@@
seat
age
draw
¾
choo@@
exact
spilling
mattresses
attached
coco@@
shrimp
fu@@
wri@@
sustainable
shed
bringing
wine
fully
tray
near
kni@@
source
required
comple@@
co
iron
coll@@
seen
impression
read
dual
let
how
suitcase
providing
multi
fabrics
pique
bedroom
vacation
komplement
sheeting
crunchy
rays
vaccuming
plug
floor
spruce
slowly
five
lo@@
accommoda@@
tones
everyday
fa@@
hidden
am@@
ck
organizer
relieves
fisheries
dry
materials
placementfor
similar
resilience
rib
gains
leather
theme
patterns
fly
roomy
looser
ph
suction
clara
anti-microbial
ches
sports
requires
nal
3
dolls
directed
mid
patio
fiberboard
la@@
magnet
platform
medium
spread
vege@@
brea@@
unused
cooktop.oven-safe
ents
vo@@
dimen@@
until
placket
dently
inte@@
stretch@@
globe
places
sil@@
ze
mil@@
india
argan
rate
instead
high@@
front
frame
odors
caught
mize
replaceable
equipment
heading
outdoors
short
tools
letters
pot
l@@
)
tidy
imp@@
lockable
reading
tilt
eye
evapo@@
tar@@
vely
hangers
knocks
spi@@
apple
wherever
rly
fast
sateen
bodysuit
reli@@
incorporates
travel@@
could
low.dry
storing
constricting
marathon
stop
wellington
shine
added
inners
holders
carefully
fruits
transports
loves
hollow
bulbs
large
ali@@
blade
bottles
dimensions
onions
kin@@
ch@@
clean.stretch
blackberries
shing
gra@@
pillowcasemachine
clean.cover
grip
ordination
sliding
footrest
scre@@
facing
possible
sco@@
conditions
filling
relaxing
rs
rac@@
0@@
old
cooked
ribbed
24
strea@@
interfacing
clean.back
certain
top@@
patina
plate
racer
peaches
kitchenware
cap
lights
nougat
rods
room
beds
concentrated
ned
traps
friend
narrower
64º
oil
riktig
months
bleach
thirst
pointelle
electric
preserves
stra@@
bl@@
slips
eating
tion.@@
mouth
ceramic
can
grooves
want
story
leather@@
strip
windows
knees
landing
é
efficiently
eve@@
depth
towels
volume
pati@@
impact
treats
freezer-safe
today
oven-safe
solid
chair
att@@
meal
smartphone
exciting
throughout
lasting
match
scouring
365
gx5@@
lint
air
cuff
ly
response
development
keep
eat
crew
sections
sturdy
suppleness
adventure
eket
strips
ingatorp
id@@
clamp
stir
deeper
unsaturated
salad
two
agave
high
i@@
gowns
conveniently
sla
combines
accu@@
handbag
corn@@
scented
select
sty
30
listening
ss@@
building
sc@@
toot
ve@@
harsh
making
space
acti@@
ther@@
person@@
shar@@
measure
2017
except
thinking
claws
increas@@
des
raspberry
wax
adult
clean.vacuum
darts
leaning
bac@@
relieve
faucet
water
sock@@
gan@@
sustainably
umbrella
side.dry
point
mes@@
year
charac@@
wide
whisk@@
dimensioned
aims
prefer
ants
needed.always
new
jars
post
energizing
by
cardamom
drawer
mushrooms
do@@
contoured
details
broad
mold
grain
trains
brushed
shin@@
sheer
als
sea@@
exercise
shrinkage
closes
är@@
flying
peeling
blend
low.iron
baking
1x1rib
lamps
pastries
et
height
magazine
pulling
frequently
diffused
park
pushing
fragrance
red
ine
deeply
98
vertical
experience
cabinets
allen
lift
mode@@
blosso@@
lid
green
easy
rent
uring
pendant
con@@
beginning
floral
sometimes
disposable
group
medium.dry
sweet
attractive
eves
dowel
empty
fixed
effort@@
visiting
8
shirt
shadow
fall
skirt
dr@@
foundation
arrange
framing
lot
the
waffle
spla@@
fan@@
inc
renewable
absorption
clean.inner
and
neater
tes
protruding
range
develops
regain
look
sewing
ma@@
waterwater
ger@@
urs
cooler
butt@@
coordinates
cocktails
may
spots
tealights
snug
unsurpassed
timesaver
oo@@
microns
creativity
pax
microfibers
blanda
4
worn
flat
35
ön
innovations
uplight
ch
app
baseboard
dishes
softer
toymachine
expresses
color@@
gray
bookshelves
replica
glassware
lamp
connect
bust
kallax
display
control
pre
arm
per@@
springy
5-seat
black
undo
d
sunny
depths
lively
ded
avenue
magnetic
nice
switch
wall
still
ba@@
art
curtain
www.@@
makeup
root
insert
clock
underside
cuffs
suggested
giving
container
certified
decorations
penetration
carrying
beam
sheltered
protection
lacquer
app@@
mood
tie
open-collar
adapt
sk
necessary.@@
ering
jackets
deteriorate
dia
bas@@
ven@@
fill@@
variety
icing
simplify
coveriron
lanter@@
ends
g
thread
therefore
mail
always
clothes
so@@
american
scratch
refreshing
underarms
ling
market
basic
soap
microfiber
ripened
jewelry
shrin@@
ash
purchase
shell-look
knitted
snap
avoid
begin
trend
buckle
novel
perio@@
care
86
tip
crouching
tucked
gin@@
sophisticated
wearable
hanger
eled
lls
west
see
hallways
craftspeople
stantly
tradition
visi@@
ance
clean.wipe
staining
shortly
durability
2
profile
diffuser
pers
shelving
appro@@
kitchens
down
scratches
toddle
ce@@
ofantligt
various
mismatches
undone
brighten@@
stylish
wrap
gently
glossy
ens
pillow
armholes
v
atlantic
val
craftsmanship
situations
functions
cushiondo
money
poncho
hobby
sand
ribb@@
running
perfect
rails
desk
vi@@
busunge
the@@
leaf
self
compartments
minute
afterwards
cushionhand
rib@@
everything
based
stainless
environment
cooling
cloth.pair
gathered
sandalwood
happy
tted
ple
built
ation
der@@
uld
bookcase
denim
ts
pri@@
wrapped
staple
?
generation
drawing
sort
grundtal
wash.do
12
18
organize
aside
gh
freshly
tablewipe
dproof
without
fingers
excess
effective
drain
smell
2.4
&quot;
handcrafted
permanent
leash
on-@@
horseradish
w@@
flatware
marin@@
stick
protected
it
gentler
thing
arranged
slightly
hooded
papers
sandpaper
sph@@
drawings
st@@
basketwipe
simplified
ounces
raisins
better
great
cubes
quilted
armrest
beads
rights
seagrass
soa@@
turned
equipped
refined
opens
softness
exceptionally
pants
kids
reflective
developed
cleaner.clothes
corn
loop
threads
shir@@
il
self-deodorizing
coin
been
e
15@@
h
liable
rubbing
sn@@
system
der
ts@@
dishwashing
special
ise
g@@
accentuated
insula@@
3-seat
ath@@
flannel
uti@@
motion
meals
mirrors
acidity
side
moderately
sound
pen
pillow@@
terry
detailing
al
lates
buffalo
suits
stitching
keeps
lled
thinner
.professional
capability
useful
outfits
disa@@
coun@@
multi@@
me@@
grains
base
wash
tri@@
frying
beverages
trimmed
plays
ken
independently
pasta
tt@@
alla@@
value
sleeping
using
recycled
upside
protein
2-pack
from
ansluta
skurar
suit
poultry
rear
spreads
or
ergonomic
reduces
boiled
dampened
rugged
pieces
anklet
trash
replace
illuminating
her@@
gloss
d@@
matter
waterproof
hon@@
ladder
pads
fill
rasp@@
teach
round
innovation
coverhand
finishing
contents
easily
cal@@
gging
resi@@
mmer
choose
potpourri
groove
workwear
b
lingonberry
arms
into
jo@@
weights
fika
dressings
resistant
at
trestle
l
shrink
skilled
folding
cracking
gift
printed
level
shel@@
earthy
important
wear
tension
h@@
leaks
equally
polyurethane
relax@@
x@@
dirt
converts
tempered
gussets
leg
whether
com@@
casual
more
cloud@@
sheet
lacquered
briefcase
bowl
waterproofing
tal@@
core
incomparable
n@@
rustproof
mustard
cle
ble
2-@@
build
son
porcelain
moisturized
window
11w
ttering
lu@@
kind
expecting
geometric
cele@@
gingerbread
mi@@
lit
comp@@
assembled
rod
wards
rulers
dra@@
fun
dishwasher-safe
firm
ups
homework
smoothly
sharp
cycle.to
dist@@
especially
suc@@
revolutionary
tables
dining
kno@@
ironing
box@@
serrated
unplug
would
sweater
feedback
rail
elegant
monsters
tions
m@@
very
122
motif
00
warm
anywhere
get
cul@@
try
shades
favorable
chrome
tea@@
nightstand
freezing
hands
throws
nils
cotton
direction
what
code
add
tched
washcloths
exceptional
or@@
marks
save
padded
lining
guests
warrranty
oranges
söderhamn
outside
drape
preserve
abrasion
decorative
shoes
print
outfit
tened
k@@
⅓
craftsperson
chairwipe
patter@@
show@@
items
hor@@
tr@@
bamboo
tness
tasteful
cur@@
process
bunny
racerback
outs
manual
greeting
tapered
divide
solution.maintenance
supplies
bal@@
bun@@
candles
bin
ll@@
dal
ev@@
minima@@
cookware
shell
graduated
them
dresses
removable
enhan@@
bir@@
fair
containing
cking
switches
notes
bomb
directly
roller
bit
shortbread
on@@
crea@@
pancakes
swedish
mottled
doll
athletes
crispy
circulation
cropped
hu@@
bot@@
once
demands
leisure
adi@@
va@@
creates
colder
tulle
ton@@
ves
hip
wagon
9
pen@@
entire
breathes
sley
prepare
breas@@
oc@@
cloth.clothes
distinguish
either
regulating
desig@@
colla@@
socks
cat
spor@@
dim
necessary.wipe
kitchen
ikea
ess@@
boil
main
despite
washable
barley
wavy
personally
additives
drilling
done
adap@@
when
lingonberries
units
pallra
absorbent
board
lock
pastel
luxury
viewing
glow
connectors
・
high.do
lined
rubber
object
aroma
name
blanket
fat
act
hin@@
salt
piece
eyelet
wages
blink
neutralizing
losing
store
micke
cables
capacity
cabinet
lingering
cargo
ready
cloth.dishwasher-safe
simple
lip@@
rechargers
frozen
redesigned
station
parallel
allows
pastry
outing
reaching
shoulder
think
hammock
operated
horizontally
inseam
waisted
foot
insulating
tv
jacket
artificial
unrestricted
fork
crafts
provide
eting
illumin@@
z@@
homekit
adjustable
coast
perfectly
65
doing
r
upda@@
floors
pota@@
algot
kivik
middle
toasty
v@@
rene
fasten@@
ligh@@
window-cleaner.wipe
wash.machine
bri@@
dissolving
drafts
leak
result
balan@@
form
ging
hitting
solvent
handwash
combinations
®
sin@@
400@@
strain
hanging
sed
th@@
tw@@
sneakers
designed
curtains
fuel
miniature
increase
calcium
stackable
needs
north@@
mirror
out
2@@
binders
width
canopy
ce
ventilation
warmer
grown
paired
vest
address
rayon
jersey
ad@@
gradient
;
dots
side@@
laundry
are
ny
grinding
gical
heavi@@
‒
solu@@
knit
bra@@
furnishings
armrests
pellets
loaded
nature
available
larger
windproof
brings
uniform
amazingly
lace
tee
towards
super
gre@@
dispenser
lmwipe
photos
spout
snack
movie
enjoyed
alone
oversized
⅞
dry.@@
lifelike
low
furry
crawl
steam
crotch
friction
silent
athle@@
cycle
sti@@
toddler
incandescent
heavy
smaller
80
furni@@
powder
collection
finished
potty
7@@
fto@@
retains
dinner
puckering
cloth.mattress
orn
atmosphere
wool
who
again
applying
uniqlo
imagine
season
sheds
directions
ghts
velvet
clay
slanted
salads
sharpen
napping
m
ffe@@
expression
home
cloths
skin
ban@@
canvas
vacuuming
ani@@
replacement
improves
zink
.iron
succulent
rous
coverto
genuine
boholmen
rin@@
sweaty
men@@
sliced
sunburn
ordinary
toilet
instance
tighten
artists
trichloroethylene.@@
len@@
r@@
wood
nook
island
iron.dry
stitchwork
inside
dill
ines
teddy
all@@
joint
processed
emits
hiphu@@
greater
layer
countertops
mattressdo
ec@@
hiphugger
smoked
10
rage
does
matte
via
fastener
gus@@
coverprotect
sh
exten@@
im@@
browns
types
matches
hall@@
different
ated
secure
candle
collections
cro@@
bending
supple
mat
dimmable
play
absorbing
favorite
outerwear
com
quencher
venti@@
ther
lasts
white
grund@@
day
u
around
basket
distinct
brown
ies
moment
bo@@
colorful
potatoes
accor@@
beauty
cycle.@@
en@@
-
les
poin@@
cured
body
penetrating
regulate
et@@
soci@@
truly
kes
plates
second
wrinkled
up@@
ä@@
cacao
ely
watt
ärta
press
pull
stores
puffy
backside
spotlight
hide
tanner
whee@@
kit
etc
frost
odor
cular
ultraviolet
closure
games
ever@@
invi@@
spring
pa@@
combed
errands
valve
technique
acces@@
grid
closely
micron
slipping
sleek
latex
covervacuum
freely
soil
.@@
deliver
friendly
wearing
ja@@
fur
an@@
across
vie@@
al@@
origin
turns
attaching
minds
creative
gg@@
damp
pine
paint
inter@@
stripes
movements
rebound
taped
heal@@
placing
wants
boyish
whenever
original
pressing
natural
density
follow
tucks
social
ell
ard
mornings
rather
charging
hardware
runs
indoor
comforting
filled
waist
f.freezer-safe.dishwasher-safe
warranty
remo@@
tures
car@@
coordination
but
automatically
tomatoes
balls
cute
cut@@
comforter
ada@@
ttle
shortened
cover
card
write
vel
subdued
health
mixed
sleeper
er
stuff
ter@@
stimulate
moving
mattress
handwoven
limited
break
ones
ankle
dly
gu@@
stabilized
fro@@
bul@@
minimizes
tanning
here
for@@
ps
load
sleeves
fittings
lemon
dreams
exterior
deodorization
nylon
shade
includes
neatly
opening
lions
th
ex
vary
o@@
emit
rug
ving
stable
e26.400lmwipe
stitched
regular
lowers
shapes
surfaces
styles
sandals
reacts
tailored
conc@@
id
camouflage
separate
leathercare
cleaner
che@@
slimming
resu@@
hearty
molds
hint
structure
through
summery
recovery
carry
anyone
label
features
furniturestore
padmachine
role
damage
iron.do
chairmachine
irregular
loun@@
seasonal
pur@@
run
glazing
nothing
burned
tone
belts
lunch
hemmed
trays
ture
brochure
spills
convert
unique
vibrant
muffins
milk
pans
underbed
laptops
breasted
speci@@
mobility
bring
concealed
ent@@
mo@@
rim
snowfall
gather
row
carefree
water@@
area
picture
resists
conducts
tches
heads
bly
mental
matt
effect
loops
diaper
lambs
products
sting
fer
hooks
visible
we
est
neck
thicker
real
3@@
bi
rose@@
vents
sun
inf@@
maybe
low-@@
transform
la
specially
personal
tu@@
knife
fresher
lightly
having
gateway
package
stor@@
solutions
function
restful
creamy
cm
unlit
memorabilia
rinkle
potted
devices
stabili@@
basis
activity
symbols
connected
seeing
rich
protec@@
17
ets
prolong
train
basi@@
meticulo@@
dampens
delicate
cloth.pull-out
induction
strainer
impressions
balanced
aromatic
almond
extreme
people
topwipe
absorbs
blind
pin
,
about
sec@@
nyboda
rates
outer
distributes
motifs
spices
hemming
purpose
standing
shorts
gateleg
magnets
wallpapering
ms
20
phil
se@@
ai@@
carbonated
ga@@
apart
electrical
screw
necklaces
basquiat
traffic
safety
versatile
måla
climates
dough
everyone
clear
woven
slot
coarse
systems
playing
king
organic
j@@
long
product
ponte
crepe
flooring
high-@@
ster@@
focus
mar@@
scent
honey
consistent
gs
s
cl@@
pre-washed
resembles
memory
formal
temperatures
beg@@
max
opera@@
rn
stamp
prin@@
above
meats
stu@@
mechanism
sandwi@@
packaging
dimming
adju@@
breathability
toray
extremely
f.freezer-safe.dishwasher-safe.leave
chandelier
go
bleach.do
embracing
buttons
heartwood
©
harmless
denser
forget
attachment
e1@@
produc@@
mickey
modern
cleaner.pull-out
roles
trinkets
feldspar
nearby
usual
gli@@
armchair
colors
springs
occasion
watch
good
something
sweden
character
culture
covermachine
start
prevent
disturbing
upf
far
planter
temperatureminimum
acci@@
quest
urethane
os
parti@@
brushing
surroun@@
scratching
16
headboard
lamé
flatter
floorhead
skipper
fiery
multiple
gx53
non-removable
comforters
er@@
belongings
mix@@
fin@@
tally
chemicals
extended
drawn
tight
narrows
organizers
heels
treated
fennel
13
non-abrasive
blacking
there
year-round
sprou@@
individual
writing
particleboard
created
galvanized
chambray
prevents
din@@
cated
zones
include
ir@@
collage
finger
ut@@
scarves
dro@@
ben@@
defrost
lean
served
high.dry
gives
garment
bea@@
hacksaw
thy
deli@@
ss
brace
linens
trendy
helps
rare
wings
cloth.mesh
have
mance
compensate
casts
sense
playful
luxurious
ning
maximize
mites
towel
protective
flexible
sho@@
chest
parts
shelves
af@@
protects
chairdo
mails
u@@
rooms
blown
key
sula@@
glass
maker
tank
complement
upward
professional
skills
work
stirring
ent
grace
y@@
shelf
efs
scar@@
popular
tumble
woodclean
wicking
hold
cable
pair
phones
net
maximum
nel
storage
sloping
sharpen@@
supima
sanded
lounger
100
microwave
holds
nor@@
ring
proof
four
stitch
random
is
preeminent
cap@@
caster
dama@@
fraying
entra@@
injury
detachable
instructions
allergic
unintenional
lic
9@@
levels
tte
blocks
ges
variation
cast
ing
safer
combat
sensor
immer@@
trest@@
nea@@
aim
has
rinsing
plants
repeated
sion
subtle
expand
they
stand
grate
herbs
omega
photo@@
safely
fitted
lling
rt@@
ending
shines
pu@@
fade
cream
where
tic
coded
co@@
reach
cloth.wardrobe
utz@@
k
toys
tell
tamper
yogurt
straps
create
tomorrow
inch
crown
tro@@
low@@
rack
spare
fruit
provides
someone
template
eyes
family
bath
tabs
matching
bloo@@
often
slide
project
lines
bur@@
distance
behind
00@@
answering
production
bigger
chinos
these
flash
fresh@@
trellis
treat
non
calves
structured
hips
enhances
cordless
unparalleled
rise
trichloroethylene.back
right
sofas
hejaren
mercerized
ski@@
rolled
accents
pick
molded
attention
deciding
warmth
opened
really
crank
liquid
rest
pon@@
v-neck
days
endless
sticks
string
slim
handle
dress
panels
nings
film
rating
wrists
wardrobes
portion
sweatpants
coziness
chaise
end
heart
apples
in
regardless
clean.protect
entirely
embroidered
pl@@
tered
elder
stuck
play@@
method
cloth.@@
remover
remain
active
book@@
contemporary
windowsill
perpendicular
battery
besides
polyester
traditionally
inventing
w
sions
clamps
flower
attaches
stretchable
mou@@
pla@@
keeping
loads
rec@@
ander
+
typi@@
sized
dimensional
incredibly
sp@@
setting
sa@@
delica@@
surprising
ld
tur@@
siblings
queen
releas@@
en
sparkly
dge
face
files
knob
detergent.professional
popcorn
projects
in@@
seams
ere
orts
150
undershirt
water.do
org
ster
also
big
wiped
offer
almon@@
qui@@
wer
car
sleeve
boat
pleasant
f@@
were
enhanced
jea@@
gentle
leas@@
stimulates
mounting
contours
flow
even
rew
approximately
disney
fibers
constru@@
neckroll
well
duvet
show
contrasts
zip
an
pillowdo
cha@@
offers
superb
precise
vegetables
cooking
school
kid
ers
biscuits
emi@@
pain@@
travelling
c.dry
folded
notice
certa@@
figures
ultra
dip
wedge
aromas
higher
loyal
bedlinen
tations
environmental
cultiva@@
ear
whichever
updated
headings
means
e@@
maintaining
pan@@
hub
foldable
hem
47
am
positions
newborn
pockets
yarn
ug
c.sleeper
responsibly
collared
smallest
uv
wood@@
bottle
piles
women
troublesome
swi@@
who@@
fingerprint
cen@@
insulated
stard
cork
customer
organized
brass
veneered
mint
festive
hinge
lays
eyelets
pper
rings
fastening
squee@@
fish
clothing
ice
cashmere
take
protectors
ancient
becomes
years
walk
develop
others
craft
packs
free
soften
cho@@
stops
simultaneously
shoulders
stays
300
times
ssing
regulary
example
changes
bedding
inverted
leggings
encourages
visable
www
⅛
600@@
move
sts
infor@@
bu@@
edging
e26
coating
media
sealing
microwave-safe
attach
case
exc@@
retrac@@
source.location
yarns
bag
options
nic
roof
bake
scooped
re
sided
stacking
mir@@
finials
:
goes
clicks
silicone
pping
marbled
ter-@@
cone
stationery
energy
line
96
sandwich
satin
pro@@
pfoa
first
ure
multi-use
yourself
beans
frills
garlic
alike
section
tape
utensils
breakfast
retention
ties
pale
ver
road
relief
liquids
winters
yacht
quick-drying
t@@
pering
are@@
es@@
jointly
nutmeg
enhancing
distre@@
measurement
away
ear@@
dry.vacuum
clean.sleeper
lightweight
coversteam
worry
seafood
increased
tal
feet
featuring
mélange
moderate
locking
volpi
launching
pes
follows
mping
life
ver@@
www.utz.org
gets
functional
ons
sten
protectordo
wallet
sponge
weaving
babies
fol@@
silky
densely
should
damper
seamless
wind
ters
⅝
scents
daybed
wells
famnig
stemmed
turn
42
practical
yellow
å@@
bathroom
pink
continues
picnic
upright
naturally
rotate
blocking
trip
wo
tab
hung
tent
acid
intense
significantly
necessary
bel@@
med
uncluttered
exp@@
learn
faster
ages
strikes
riding
discolor
reinforced
content
edges
ter
te
produced
bread
inserting
conden@@
just
pulled
gracefully
unlike
skir@@
si@@
lounge
trun@@
pour
yours
applies
flared
actually
svarts@@
conforms
segments
ll
toppermachine
toes
single
fil@@
vase
chun@@
stretchy
showcase
wasted
holder
mix
underlay
ginger
hearts
rustic
covers
cowhide
hair
maintains
tren@@
equal
crates
repea@@
slipcover
crumbs
chain
desktop
ball
meas@@
appropriate
de@@
out.back
detac@@
chin@@
fai@@
cing
essential
ka
darken
out.armrest
eraser
kills
sig@@
ideal
fresh
counter@@
msc
lovely
backpack
over@@
ra
those
clean.pillowdo
400lm
comfy
clasp
bathrooms
uni@@
join
pouch
assemble
no
moisture
soup
week
movement
heattech
tableware
unmatched
anything
tigh@@
precipitation
busy
stripe
coordinating
air@@
pop
party
centers
gu10.400lmwipe
15
nt
ensures
st
to
ed
gar@@
since
pe
familiar
do
preferably
optimal
steak
overview
dilute
sectional
accurate
minimum
texture
vackert
low.do
tiles
drying
slender
sticking
crumble
textile@@
runners
bird
vy
view
lemaire
ö@@
rugs
32
regains
ly@@
oiled
trim
sleek-@@
blue
tangles
smooth
oat
goods
seasons
paper
chalk
racks
sheen
adapted
cleaning
¼
trousers
maternity
fabri@@
ler
shows
freestanding
substances
⅜
spectrum
spot
cara@@
grow
because
preference
ls
ve
f
jacquard
nuts
step
map
assortment
spinning
invisible
depen@@
max@@
anti-odor
11
vacuum
e26.@@
remote
smart
qu@@
crane
trous@@
cords
mounts
pronounced
serve
getting
glowing
pushed
separately
ally
floa@@
inn@@
radiation
insulation
camisole
sto@@
soft
looks
problem
condi@@
coordinated
divider
relax
brake
spark@@
cra@@
sof@@
enameled
6.10
light
domsjö
loss
microwave-safe.@@
standard
vin@@
lefto@@
charger
indoors
sideboard
ki@@
decoration
27
our
sustainability
thi@@
accent
rolls
deter@@
candlelight
de
travel
ren@@
decoratively
cleaner.wipe
solution
cling
incorporated
firmness
chilled
zi@@
personalized
legs
cri@@
adjusted
dishwasher
release
heat
enjoys
backrest
won
enough
react
pillowcase
sses
textured
tten
foggy
sources
stool
your
coverclean
t-shirt
ood
us
pure
resource
coverwipe
flies
ted
bonnell
love
merino
pile
phthalates
hints
gardening
christmas
rema@@
preserving
going
weight
hassle
ottoman
shaving
any
ying
bridal
regula@@
asymmetrical
compactly
wad@@
5th
metho@@
26
freeing
children
location
responds
give
ders
team
pas@@
lm
cami
pee@@
.
ns
sensitive
place
chocolates
bracket
e12.200@@
opener
dust
mer@@
indi@@
feel
chino
oun@@
darkening
workspace
0
girls
call
pleats
shake
if
reversible
stains
weft
period
table@@
ink
luggage
several
bowls
tive
corrosion
joseph
themself
come
unit
separately.do
functionality
accessory
gula@@
bacillus
stickers
heighten
incredible
street
appetizing
three
fluffy
steady
way
pre@@
doesn
strawberry
rubberized
super@@
conduc@@
nutri@@
½
dis@@
212
under
cooktops
°
cal
farmed
many
lumbar
set
truck
freezer
refrigerator
harmful
acks
snuggle
ety
felt
chairs
cut
eets
plastic
prolongs
sha@@
dot
lin@@
catch
pears
mean
seg@@
bone
garm@@
same
enjoying
dogs
falls
premium
that
wrink@@
tou@@
ier
ching
trichloroethylene.mattress
surface
dressing
parka
oz
each
ha@@
coagulans
effortless
personality
.water
utility
cedar
intermediate
brighteners
clean
bs
textile
spaces
as
sla@@
enamelled
eal
heather
4.@@
lyocell
vity
comfortably
blo@@
weave
son@@
spreading
cardigan
tries
ta@@
gu10.@@
tomato
utz
colander
le
one
fo@@
fabric
sporty
recyclable
é@@
mel
tap
be@@
firmer
knives
consumption
ful
dimmer
collec@@
ped
bredskär
serving
il@@
newspapers
narrow
constantly
atmospheric
ensure
immediately
shorter
widths
skirtmachine
activate
sal@@
nautical
braided
bar@@
nei@@
arran@@
chairiron
metal@@
wheels
mini
fatty
visual
see@@
boxes
item
juice
detailed
eek
watering
magni@@
semi
washing.do
gers
tea
ils
possibilities
caps
mount
shower
breathe
don
decorate
dry.iron
ddy
bulky
open
belt
their
angle
foot@@
.line
tightly
flo@@
close
candle@@
i
