<unk>
<s>
</s>
verwenden.nicht
üb@@
bürste
vintage
sste
c.@@
fronten
schulter
gebräunte
bio
niedrige
höhenverstellbar
stützkreuz
empfin@@
schrittbereich
falt@@
laminat@@
daunen
schließen.nicht
uch
aussehen
kochfelder
pink
schoner
ungeschälte
lunchboxen
micke
vorkommt
schran@@
leuchten
materials
bredskär
überall
geht
drehmomentlagen
gerechte
quir@@
smart@@
zier@@
gleich
harmonisch
geräumt
breiter
daher
naturgetreu@@
monaten
hn@@
naturmaterialien
aller
uni
einem
urlaubs
pointelle
poloshirt
hand
bildung
trag@@
verschwendung
frucht@@
4.6
abwischen
lästiges
feine
esche
warmem
komfortmerkmalen
sa@@
leichtgewichtig
weichem
sonnigen
-
semi@@
kaffeestunde
tigem
hergestellt
löchern
gebürstete
sitzplatz
rad
anpassung
gegenständen
ladegeräte
sofagestell
rollen
ablo@@
stärken
getaucht
wür@@
är@@
fäden
veranden
einsatzfertig
rückens
uneingeschrän@@
sichtbaren
haus
vitrinentüren
as@@
sitzig
rel@@
nationalgericht
besseren
weihnachten
schat@@
lackierte
mitte
klettern
transport
schiebetürdämpfer
gemüse@@
trockener
geknöpf@@
s@@
feuchtigkeit
mundgeblasenem
vier
beut@@
kleinteile
kna@@
finish
einzigartige
unebenem
zusammendrücken
ineinander@@
sucht
künstler
gsam
bezugbuntwäsche
kaltschaum
plan@@
vol@@
beruht
naturmaterial
mehrere
weicheres
gummi@@
se
grö@@
saugfähig
project
stellt
ti@@
lichtspiele
gestells
gaben
kohlenwasserstoff.bezug
stör@@
komm@@
wohl@@
tiefe
spitzen@@
mischeinsatz
angenehmen
pilling-ausrüstung
nackenbereich
durchgefärbte
über
zuschneiden
on
zei@@
modernes
schranktür
geräten
gebor@@
vertikale
0ern
drucköffner
blei@@
strumpfhose
blüte
kochvorgangs
hautsympathi@@
shirts
dä@@
faser@@
streifen@@
5
berühm@@
polsterbuntwäsche
durch
steckdosen
bequeme
trendige
schont
ausgezeichneter
arretieren
smartphones
rollwagen
frisch
pfirsichen
sst
belieben
vorderteils
che
temperaturaus@@
desodorierender
rollos
spezielles
unser
verfügt
lass
zubehör
ihnen
eige
p
pflegeetikett
abstützen
vielerlei
war@@
trocknen.staubsaugen
verbergen
verkeh@@
braucht
hüb@@
schmiegsame
ersten
löhnen
schmalen
geneigte
side@@
licheren
antimikrobi@@
sideboard
couch@@
anwinkeln
zuschieben
richtig
flocken
neu
must
handtuchs
ihärdig
effekte
ladung
uv
thi@@
steck
regaloberseite
ll@@
gefal@@
zange
farbbeständigkeit
künstlern
überallhin
geschmack@@
passende
sehvermögen
herausrutscht
becken
%
sie@@
möglichkeiten
verwendbare
wollflor
zwischen
mischbatterie
ultrafeine
schimmer
beleuchtung
board
vertiefungen
säubern
öffnungen
eta@@
von
em
weicher
essen@@
4.@@
konservierungsmittel
sen@@
leinwand
natürliche
lusive
gehärtetem
kommt
schalten
furnierte
aufgefrischt
obere
gestalteten
vase
ss
bisschen
herab@@
eingeölt
zauber@@
sortieren
len@@
zeitloses
weiterer
schlafplatz
seitig
widerstand
kn@@
fröhliche
nähten
gel
dichtes
9@@
anderer
mittelhohe
arbeitsplatz
kerzenfarbe
regulieren
zugang
vorsichtig
ordnen
schaft@@
entspannter
frühlings@@
winkelt
heizkörpern
sitzgelegenheit
glatten
beleuchtet
mp3
dan@@
kabelsammler
würde
laubt
bügel
wandhaken
cell
günstiges
opti@@
innenkissennicht
stecker
eigenschaften
c.bezug
potpourri
danach
bewegen
gleichartigen
geworden
nuanc@@
dekorativem
blautöne
abwechsel@@
strumpf@@
grund
liege
frontschutz
einsatzfähig
da
stell@@
250
schirmen
aufbewahrungskombinationen
schwerem
150
versetzbare
anliegenden
bezughandwäsche
blumen
.
julfika
web@@
kissen
nachhaltigen
tüllrock
teren
vor
auss@@
grundausstattung
ansprüche
verwandeln
gummierter
bekannten
scheuerpulver
gr@@
hemdenstil
vielseitiger
öl@@
mattem
einfassung
bestän@@
ts
glänzend
hosen@@
minz@@
er@@
fließende
trockenes
port
beschri@@
gegessen
utz
darunter
innentäschchen
schau
t
les
topfs
4@@
verringert
schneller
herstell@@
geräte
gte
na@@
voll
option
bouquet
muster
gießenmäßig
melierte
schnappscharniere
aufgerauter
reflex@@
kälteren
seine
zuhause
eindrücke
schnellstmöglich
ent
schichten
leibhöhe
soße
frotteebadematte
gepolstertem
cotton
rücken
westküsten
lie@@
coun@@
verschieden@@
sichtbar
or
ladestation
einfrieren
ihm
o@@
ausgereiftes
gerundete
abgeleitet
einfachen
gesäßtaschen
bund
schreibfläche
flexib@@
angepasst
kreislaufs
geschirr
faltet
edelstahl
bares
mmer@@
bestå
fte
zugäng@@
gerät
silikon@@
sitzgruppen
behält
ys
gan@@
schutzfaktor
al
bewegungs@@
beide
neuer
digen
brennenden
ds@@
herstellung
ausgezeichne@@
dessen
sicherheit
bettgestell
frühling
rand
verstellbaren
hej@@
siert
gestreiftes
verspielte
entspanntes
vergröß@@
reichts
gewährleisten
schulternähte
wäsche@@
mechanik
innenkissenbuntwäsche
schul@@
schweiß@@
outdoor
gebäck
spitze
kompa@@
asc
trinken
jeweiligen
produkten
badetücher
feder@@
drücken
maschinenwaschbar
stapeln
entspannende
zar@@
st.@@
schmal
stufenloser
aufsatz@@
geringeren
korb@@
gener
geben
persönliche
erschein@@
mütz@@
schlüsseln
geräumiges
überflü@@
ert
gesetzte
keramik
seinem
fensterrahmen
etikettenhalter
holzmaserung
zart
mals
sitzneigungen
schen
gar@@
boholmen
kühle
akkus
por@@
tin
sa
bekan@@
gesponnenes
mädchenhafteren
robusten
gleichmäß@@
raffhalter
vermögen
arbeits@@
tollen
bietet
dazwischen
tägliche
geölt
maße
knitterarm
frühlingshaften
oberfläche
roh@@
anhängen
waschbar.nicht
lagern
ober@@
note
kusch@@
topf@@
tiges
lederreiniger
gardinenstange
mundgeblasen
sichern
arganöl
kleidungsstücken
bet@@
markieren
baren
temperatur@@
tönen
schrankinnenräume
glüh@@
möbelfüße
schale
nussbaum
leuchtquellen
30
uneingeschränkten
rückansicht
pfannenboden
fertig
gleichermaßen
ses
gäste
große
unterseite
erweitert
figurnahen
flüssigkeit
per
museum
vorgänge
trage@@
interessanten
verhalten
magie
tziehen
unregelmäß@@
schulterwinkel
höheren
kratzfest
kälter
empfehlen
taschenfedern
sitzhaltung
schlüssel@@
fernbedienung
gx53
passt
gebung
austauschbar
nichts
partien
exemplar
spitzenkanten
gürteln
riemen
diesen
strickjacke
trocken@@
vereint
wind
schaut
dem
kleider@@
gedeihen
befestigen
geschaltet
grünen
ung@@
praktischen
deckeln
druckentlastend
wählt
puzz@@
baumwoll
gruppe
bett
at@@
umgebung
wirkenden
wen@@
kein
außenseite
italieni@@
ant@@
spektrum
kommen
packung
ruhe
van@@
trocknendem
unverwechselbar
benutzung
kleiner
alter
komfortmerkmale
regalen
zwieback
aufeinander
slu@@
schlag
streu@@
ßen
schlo@@
essens
servier@@
so@@
lichtwinkels
ganzer
mit@@
rimforsa
unge
grau
löschen
knit
erter
buch
shampo@@
tuch
4
vorn
verantwortungsvolle
größeren
klappbare
anz@@
farbige
scharf
sportausrüstung
engen
par@@
kindersicherheit
versuch
gene
prima
hts
dafür
öse
lak@@
tapezieren
spezielle
nahm
portionsverpackungen
modern
hervorstehende
ad@@
agaven
himm@@
ten
knackigen
morgens
6
träger
fahr@@
magnetleiste
zusätzlich
kleinkram
cham@@
kräftig@@
austrocknen
gleichem
kombinationsmöglichkeiten
glä@@
anbrennt
nimmt
wenigen
zusätze
sonnenschirm@@
ergonomische
stilvolle
einrahmen
genen
geri@@
oberflächen@@
knöchel@@
pulver
antimikrobiellen
antwor@@
schweiß
blauton
problem@@
dufts
optionen
e14.400
kleine
schiebt
farbstoff
einstellbar
pop@@
nahtlosen
genug
zuhören
rich@@
qu@@
geräuch@@
geripp@@
gardinenlagen
gelee
button
men
souvenirs
berührungsdimmer
san@@
knu@@
vorder@@
ssig
dieser
körper
wellenschliff
büro
teter
extrafeinen
sportliches
geschmeidig
beln
wischt
nor@@
ärta
figurnaher
textiltaschen
kreieren
einsätze
fall
säure
1
schubladenelement
ausziehen
eingearbeitetem
stiften
luft
perkal
charakteristischen
lockere
trotzdem
reisetasche
anpassen
hohe
maß
porzellanknöpfe
chtenem
lichts
genügt
horizontale
kissenbezugbuntwäsche
intensität
spürt
bezug
keln
selbst@@
ss@@
re
aucht
taillen@@
normaler
überflüssiges
front
lm
sicherheitsventil
warmen
viskoseblusen
platz
querfaden
hn
saugfähi@@
haft
aufsteht
femininere
stoßen
fünf
narbenleder
untergestell
trocknendes
kopf@@
wärmend
schmutz
fächern
verstrickt
end@@
k@@
zusammenklappbar
ausziehbarer
schutz
chten
wind@@
optik
farbvarianten
gleichzeitig
verlauf
versetzbarer
eisenbahnsystemen
teesieb
rollo
eindringt.vor
kältesten
nutzung
kundenfeedback
sicherheitsfolie
netzstecker
bezugstaubsaugen
zentimeter
wachsen
staubsaugen
antes
sitztiefe
vorteilhafte
wärmeverteilung
spezialbehandlung
persönlicher
unterlegscheiben
ch
2
bahn@@
sure-looks
satingewebte
gebondete
kurze
20
hilfe
ripstop
mobiltelefon
jerseystrick
a
adrette
austausch@@
waschbare
ordner
lang
quar@@
ebenso
topaktuellen
körperkontur
schleifpapier
tage
decke
einfarbigen
bessere
app@@
charmantes
faser
zierde
maskulin@@
cken@@
gerunde@@
kunststoff
eh@@
sitzfläche
kunstwerke
fließendem
symmetrisch
wirkungsvolle
lan@@
keile
maschine
landet
spezieller
ene
svartsjön
eher
brie@@
bereiten
kräusel@@
leitet
n
wippfunktion
ausgezeichnete
seite
.den
zentraler
bügeleisen
ße
ladepa@@
zufügen
leseleuchte
kastige
wartungs@@
rig
wei@@
de
wähle
gelassen
rad@@
ideen
ner
entaschen
streifenmuster
liebt
lit@@
y@@
montieren
außenfach
verdunkel@@
störendes
led
problemlos
luftig
staubgeschützt
tel@@
aufgewärmt
vers@@
enden
leder
cargo
standort@@
dass
leichtgewichtskonstruktion
bekannt
kerzenlicht
sier@@
tor@@
wasserdurchfluss
couchtisch
saugt
sweathose
eines
smar@@
öffentlichen
volumen
backen
dal
picknick
tter
kö@@
wirken
himbeer@@
blickdichte
toiletten@@
reinigen.gestellmit
grundtal
wasch@@
neutr@@
klassischen
gewebe
°
schokolade
wechsel
spül@@
stand@@
vogel@@
wärmeren
ck@@
fusseln
satz@@
verseh@@
lagerung
ga@@
glühlampen
lieblings@@
sitzschale
tomatensoße
schaften
dun@@
erleichtern
hält
weiten
desig@@
spitzengardinen
dreiviertelärmel
lösung
adret@@
attraktiver
er
erhöh@@
py@@
schwedi@@
lätzchens
bügelloser
sieht
one
angebracht
flamme
elef@@
sportarten
gegenstände
luss@@
mischgewebe
ved@@
seitenstreben
stempel
herunterfallen
herbst
filz@@
zufinden
transparenten
s
parka
tu@@
eingesetzt
teelichter
hm@@
hinaus
lillabo
wo
kinder
hinten
roll@@
nacken
blockiert
tä@@
herd
u
anbau
nachwischen
diesem
klein@@
authen@@
spüren
bin@@
angebauter
wäschekorb
kelch
lagen
folie
akku@@
decken@@
schneideunterlage
15
robustem
komfort@@
mini@@
hei@@
zertifizierter
vielseitiges
einrichtung
sonnenliege
unterstreicht
separaten
schnur
unterlage
verst@@
anhän@@
ladeschale
fahren
handgearbeitet
geriebene
strickstruktur
waschbar.buntwäsche
flache
feuchtigkeitsspeichernde
austauschbürste
unsichtbare
raum@@
nachdem
winddichte
em@@
urethaneinlage
buchstaben
verletzungsrisiko
geräumigen
großzügigen
blick@@
unterwäsche
grillen
gefro@@
genäht
modisch
erneut
gekauft
innennähte
hiphuggern
hervor@@
lieblingsfarbe
vielen
bodens
altert
herausfallen
angesagte
aromadichten
besteht
geschwister
intensivem
töpfen
nie
förmchen
energiekosten
variabler
achten
bodenfeuchtigkeit
geraffte
zubehör@@
bagganäs
kalten
eltern
hen@@
glat@@
waben
durchgefärbtes
fleckabweisenden
we@@
geruchsentfernung
fensterdekorationen
gerippten
feucht@@
waschbecken@@
scheren
athlei@@
kaltem
stimmungsvoll
ripp
funktionssocken
bunten
var@@
wa@@
geeignet.backofenfest
mitgeliefer@@
garne
splitterndes
käl@@
seifenlösung
keit
komplettiert
spezialisierte
position
k
namen
fo@@
schau@@
geschen@@
batteriebetrieb
geripptem
geändert
lauch
gro@@
bleichen.trocknergeeignet
rm@@
sauber
bettkasten
indigoblau
mischung
doppel@@
backofenfest
reinigen.einlaufen
hohen
kontraste
satin@@
robustes
wieder
dimensionale
bluse
schreibtisch@@
dir
hilft
legtes
herstellungsspuren
wetter
an@@
massive
polyethermatratze
abgenommen
sanftes
sammeln
geruch
40
utensilien
wärmer
gezieltes
min@@
be@@
mode
gepfle@@
fein
komplement
obersten
gemusterte
seitliche
te
dehnbar
haltbarkeit
etikettenhalters
langstapeliger
senk@@
brei@@
italienischen
cen@@
klingen
küchen@@
bemalen
feuchtigkeit@@
tee
ausgearbeiteten
griffige
sternen@@
paneel@@
llen@@
beste
ergebnisse
rändern
rissbildung
leuchtmittel
chino@@
fensters
mm
bindebänder
pfeff@@
braus@@
flüssigkeiten
schei@@
minimalen
gleichmäßige
ultravioletten
stahl@@
waschvorgänge
dar
klir@@
gardinen
lederpflegeset
kör@@
grifföffnungen
ornamen@@
kunst
stickereien
platinum
puppen
abgestimmte
abnehmbaren
dre@@
leuchte
bundweite
premium
klar
garanti@@
dehnbarer
verspiel@@
persönlichen
ablage
äpfeln
spiel@@
blumenmuster
kleinteilen
engt
lischen
überarbeiteter
weben
beständigkeit
iers
unbehandelte
übergänge
frei@@
schließende
ierter
glögg
kreativen
lem
weitere
kompression
blumentöpfe
sanftere
anderen
ers
stü@@
überhitzung
dichterer
stuhlkissen
wandern
gemütlicher
trofast
schlüsselaufbewahrung
c@@
bau@@
unterstützt
holzmöbeln
igk@@
fersen@@
geprägt
süß@@
c.von
bezugseparat
ergeben
kacheln
armlehnen
abbürsten
strom
dekorationsstücken
mix@@
inc
bodenroste
weite
lag@@
lassen
farbkombinationen
außergewöhnlich
mikrofaser
blendfreiem
wolldecke
rac@@
erneuten
gepäcks
kräuseln
beutel
tasse
service
abweisende
wege
wie
bereich
öffnen
vollkorn@@
drehbare
nährwerte
seegra@@
eignet
unterschiedliche
memoryschaum
weg
einfache
its
allgemein
edlen
dest@@
kleidungsstück
färgrik
verrutschen
an
winter
druck@@
buntwäsche
blockierten
schaumfüllung
jederzeit
mal
zutaten
jo@@
wunsch
vorzubeugen.eckelement
harmonischen
®
umplatziert
fernsehen
akzent@@
ern
verchromte
töpfchen
verschiedener
speziell
atmungsaktives
business
korrekt
kapsel@@
liche
designs
sten
ausschnitt
schiebetürpaar
beschriften
eck@@
beinab@@
behandlung
leuchtenden
optimalen
wellige
lässigere
fühlt
lockeres
holzdamit
kontakte
was
luftschlitz
lle
melamin
sessel
sty@@
dy@@
vorne
jeden
herrlichem
gekli@@
stilvoller
mp@@
leuchters
ganz
ex@@
webmethoden
entworfenen
massiver
nacht
entwickeln
empfohlen
sätzen
webereien
dose
ergibt
pp
arbeitszimmer
aufgestellt
unterstreichen
geschrägte
anzug
dopp@@
kartoffeln
des@@
baby@@
ppe
zugschnur
fadendichte
glaskeramik@@
unterarme
serie
offenem
saugfähige
rundung
ves
dekorative
kombinieren
rostfreien
hänge@@
deckels
plätzchen
zeitig
dehnbares
wärme
charmante
gegengewicht
abgesch@@
knöchel
außer@@
massivem
flug
10@@
basics
umwelteinfluss
chambray
zusammengeschoben
zerkleinern
legen
:
desodorierenden
sitzt
wahr@@
handwäsche
ungs@@
safrangebäck
behag@@
verbindungsstück
rutschfeste
trockene
tierte
rea@@
beg@@
knöpfen
seegrasfasern
erzeugen
igar@@
melierten
fußboden
dosen
klebt
trink@@
mindert
elles
da@@
wahl
fußbodenbelag
lebensdauer
einzu@@
kunststoffnoppen
wirkung
nugatfüllung
ender
alleine
innentasche
cher
ausgezogen
behandla
daran
hr@@
platzieren
sneakers
verstärkte
reflek@@
größenmäßig
lü@@
anwen@@
wärmt
aufgehängt
zusammenfügen
beginnen
weißen
durchziehen
funktionelle
drucköffners
aufrecht
rein@@
läss@@
drunter
chiffonrock
tafelmesser
wells
kleiderbügel@@
kerzen
rollenspielen
typisch
verkratzt
ra
fusselt
einbau
kelchform
kondenswasser
schubladen@@
tik
faltenband
verschlusses
produkt
ladeplatte
schrammen
feln
portion@@
frühlings
geltung
preiselbeerkonfitüre
kunststofftragetaschen
ausziehbaren
sinne
sportliche
zahnbecher
er-bettsofa
dampfventil
gefrierschrank
arbeit@@
wandfläche
vorder
aufgeladen
chlor
bzw
liffen
leider
erzeugt
dunkel@@
socken@@
nung
polyesterwatte
lauch@@
sau@@
probiotische
dr@@
umstands
netzdrahtkorb
preis
mischbatteri@@
eignen
isolier@@
anhänger
kürzere
weicheren
paneele
dicht
stau@@
zeichne@@
erikani@@
elastikbund
fernseh
heiß@@
sinneseindrücke
federleichtes
chte
fördert
putzen
nen@@
tragbar
wohn@@
el@@
erlaubt
schlichter
bestehen
dens
angenehme
stehkragen
vanillesoße
schmeich@@
behagliche
ar@@
all
seiner
gepflegten
emailliertem
breitere
pan
offene
herausrutschen
ns
juwel
farbigen
natürlichem
schwa@@
farblich
einstellbaren
mundgeblasen@@
festen
geometrisches
lein
system
losen
narb@@
einsetzbar
empfindliche
kann
stretchgarn
schwin@@
durchsicht@@
ent@@
verknitterten
dieses
formschön
sieren
eschenfurnier
schein@@
gegrilltem
pu@@
persönlich
anlässe
holzböden
gefühl
knusprige
beult
tarnmuster
jede
birnen
enfe@@
werk
flügeln
sie
ollt
boden
reib@@
schlafsack
www
dampf
technolo@@
baldachin
etiketten
verstellbarem
kurzarm-design
rostgeschützt
qualität
fle@@
knitter@@
putzzubehör
aufhängeschablone
zarte
ige
gerichteten
kräftigen
holzcharakter
abgeschliffen
flexible
dein
anliegendes
spiegels
dünn
höher@@
standortfür
geheimnisse
sammelt
dezentere
komfor@@
later@@
gardinenstore
legten
ori@@
rückenpolster
geeigne@@
gebogenen
sportlich
geringes
schuhe
saison
perso@@
ö
passepartout
her@@
durstlöscher
ausreich@@
wers
menge
verzieren
fast
feucht
wippen
dickem
angenehmer
kterien
unterbringt
zeigen
110
gruß
meter
schwerer
arbei@@
kontrast
doch
mengen
spülbecken
sitz
verrutscht
besonder@@
ssen
igen
fang
wiedergewonnenem
rashguard
strom@@
entfällt
handhaben
matratzenbezugnicht
offenen
lose
waschen
je
atmosphäre
gleichmäßiger
strick
extrastarke
zeichnet
scho@@
uch@@
glaskeramikkochfeld
nassen
heattech
überraschungen
vitrinent@@
hoher
schm@@
mikrowellengeeignet
gardine
ft@@
schiebetüren
system@@
körbe
twill
aufheller
färbe@@
spen@@
kinderspiele
sta
schirmt
sala@@
arm@@
w
lt
kos@@
umwelt@@
seifenlauge.mit
logisches
tücher
robustere
verpackung
wippmechanismus
kombinierte
with
gardinenschienen
wunder@@
kart@@
gefäß
powerbank
induktionsherd
ord@@
ungssp@@
schultergurte
pfei@@
gen
fernsehgerät
basteln
gekochten
dreh@@
mehr
patina
nord@@
leuchtenfuß
geordneten
vanil@@
ev@@
nachtlichter
vollständig
schein
ho@@
sts
ausschalten
laub@@
reag@@
kräf@@
gezwirn@@
läuft
situation
be
robu@@
reiben
lege@@
neben@@
eleganten
schreibtische
schläge
behand@@
stretch
entfernen.vor
unifarben
gu@@
bezugnicht
igem
regenwasser
pro
liegend
kissens
abspülen
kl@@
versch@@
alter@@
schon
weil
textilüberzug
größen@@
offener
verschoben
phtalate
abstellfläche
rausschieben
hemd@@
anspruch
lich@@
regt
reinigen.reinigung
zug
erinner@@
aufgerau@@
sonnenschutz
hängt
installation
strahlung
els
wähl@@
weste
ret@@
sweatshirt
stoffe
herrlich
kürzen
reihe
in@@
sv@@
schu@@
denier
abge@@
zusätzliches
vers
kunststoffmit
plaid
ters
geschlossenen
waschbeckens
rotierende
mitt@@
reinigen.hängend
eindringt
cut
lackieren
ungenutzten
koordina@@
kind
nächtlich
besteck
häl@@
bügeln
variante
starker
sichert
strick@@
win@@
isol@@
textil@@
fri@@
trocknet
verarbeitung
wärmeregulierung
sommermöbeln
gewebt
bür@@
leist@@
bettenmachen
regulä@@
elastischem
iert
b@@
dusche
regelmäßige
bil@@
halten
beim
ausbleichen
sä@@
etwa
bl@@
forder@@
spitzendetails
zaubern
vorra@@
poäng
magneten
sche
dezentes
schläfer
vorgewaschener
voraussetzungen
kaffee@@
he@@
geschmeidiger
messergriff
verbrauch
tafellappen
häufigem
kartoffelpüree
staubsauger
stress
schieben
möglichkeit
hochwertige
hübscher
lederpflege@@
herunter@@
handgeflo@@
klapptisch
ort
get@@
hochwertigen
kreidereste
sions@@
jeweilige
steuereinheit
einstellen
versetzbarem
sammel@@
empf@@
sonneneinstrahlung
federhölzer
zerkrümelt
solarprodukte
sehen
zogen
zusammengefaltet
schal
3er
synthetikfasern
staubzusaugen
dient
bohren
akzent
rö@@
senf
-@@
verwandelt
taschen@@
armausschnitte
klips
wald
speziellem
selbstkleben@@
drinks
übersichtliches
resten
beiden
tierung
seh
haar@@
last@@
fertig@@
verlängerung
racer@@
lektion
typische
ab
wahlweise
car@@
ribbed
weiche
elastizität
merino
ken
ausge@@
blauen
handel
schnellen
new
eise
sand@@
belüftung
tropft
oder
einladende
kä@@
tzt
tuben
mman@@
verschen@@
anliegen@@
projekts
übersicht@@
aktivität
globalen
anzu@@
vielfalt
sitzelement
000
füllige
gest@@
aufbew
springt
variationen
urethan
lattjo
gefertigt
ny
ähnlichem
mittagessen
schwamm
exotischen
öf@@
macht
ihren
gegebenheiten
extra@@
blau@@
gesamt@@
entweichen
hoch
transpor@@
95
erlesenem
stofftierfeinwäsche
mäßig
bot@@
7@@
getrennt
führung
steppung
servieren
machen
stärke
c.separat
schlitze
spiegeln
gestell
natürlich
einschieben
per@@
viskose
abtropf@@
biegsamen
nichtgebrauch
marm@@
zimm@@
kindergere@@
beleuchtungsbedarf
unsichtbaren
spr@@
freunde
hose
festlich
grü@@
haltung
planer
statement
vertikal
geschwungenen
lichtstärke
soziales
leuchtenkopf
breitem
feinkörnigem
band
stauballergiker
ausschütteln
handlich
isolierende
herausnehmbarer
metall
ons
gang
gardero@@
knitterarme
polyesterbezug
abwischen.mit
kommoden
schurwolle
schla@@
kalklöser
schalter
reichen
wand
trocknen.nicht
schlüssel
würzigen
verschiedenen
unterscheiden
superbequem
itäten
beständig
frottee@@
chemikalien
bequemem
gesetzt
sanft
gewünscht
tischende
möchte
del@@
rücken@@
falte
flächen
feinem
bambus
arb@@
rt
minze
reinigen.mit
schlichtes
leuchtstärke
einfarbige
gepolster@@
au@@
bü@@
ausführung
verspieltes
klötzchen
kaninchen
schmuck
sticks
langem
unten
wickel@@
fußbodenheizung
haltbare
polyesterfilz
verdecktes
stahldraht
artestar
tisches
klemmen
mädchen@@
polstermöbeln
holzdübel
tee@@
zusammensetzen
schmaler
ter@@
strapazierfähigkeit
verbessern
teten
-design
dort
absaugen
lesen
flach
;@@
fröhlichen
zehen@@
verpackungslösung
umge@@
wärmeabgabe
récamieren
stahlmahlwerke
saf@@
reinigen.staubsaugen
kach@@
kuschelig
herunterbiegen
plä@@
olo@@
seidiger
halbhohe
misch@@
teppich@@
körpergröße
obermaterial
kappe
verbindungsbeschlag
genauso
för@@
anschmie@@
mehrfachsteckdose
gleichbleibender
spitzen
hinter
geschwindigkeits@@
komplett
oxford
ück@@
ei@@
sogar
nachwischen.kleiderstange
plu@@
balanc@@
schlaufe
paar
unauffälligen
schleife
gestal@@
dreiviertel@@
neigt
figurnahes
möbel
kla@@
fingerabdrücken
geschmeidiges
pullovers
orien@@
lederstaubsaugen
creme
oz
molybdän
klicken
volles
behalten
größenanpassung
praktisches
zwischenmahlzeit
kästen
umstellen
hautfreund@@
kuschelatmosphäre
tief
blickschutz
behäl@@
dazu
lappen
enthält
orangen
klarem
platzsparend
rhythmisch
nutzungs@@
wegklappen
tischspiegel
zug@@
miniatur@@
handarbeiten
zusammenfalten
gürtel
dekorativer
hiphugger
waffeln
wärm@@
splatzbeleuchtung
kratzern
2er
breiten
scheuert
höhenverstellbarer
modelle
8
gu10.400
werden
einfacher
einrichten
19
genau
hy@@
die
beschichteten
mitten
arbeitsbedingungen
pack@@
schwarzen
festem
reliefstruktur
schutzschicht
gestalten
kochgeschirr
gewichtsgesteuerten
verspielten
beruhigendes
giftfrei
bedarf
ideal
höherer
astlöcher
vegetari@@
whi@@
geeignet
omega
ausführungen
klemmspot
lüftungsöffnung
bus@@
richten
betont
jahr@@
halbtransparenter
fell
handge@@
zeitangabe
erhitzen
hocker@@
anhaltenden
individuellen
beinform
laterne
farbverlauf
farbbeständig
zeitungen
schon@@
.bügeln
gartengeräte
duftkerze
ol@@
koch@@
mul@@
erzielen
zer@@
laken
temperaturwahl
geschlossene
schnörkel@@
erd@@
strapazierfähiges
kekse
klassisches
siphon
ultimatives
geeignet.spülmaschinenfest
polyestergewebe
glatter
herrscht
säure@@
feste
tiefere
accessoire
holzstruktur
spieler
windlicht
nacherzählen
schimmert
direktes
box
sägekante
urlaub@@
ne@@
chen@@
ation
radiergummi
anpassbar
ist
sperre
auszu@@
quelle
durchsichtig
kerzenschein
vanadium
minimieren
muskat
anschlüsse
aben@@
einladend
jedem
ie@@
freien
weib@@
schlafkomfort
geriffelte
schläfchen
unifarbe
wartung
weist
dämpf@@
persönliches
perlm@@
linge
bei@@
kunststoffbeschichtung
körpers
rosa
denimstoff
trennste@@
jerseymaterial
pflanzenrollwagen
bezugchem
enta@@
ge@@
möbeloberfläche
ing
sche@@
schaden
jetzt
klirren
wandschränke
spezialgewebe
flair
spa@@
dichtgewebten
hindern
verstaut
computer@@
bieten
schmu@@
pflanzenlampen
feststellbaren
schrankraum
merinowolle
eig@@
l@@
synthetikkissen
radikalen
verwenden
wann
zusatzplatten
unübertroffen
hauch
wenn
leuchtgruppen
spülmittel
streifen
schmutzabweisende
ht@@
der
weich@@
pass
gegerbtes
reinigen.innenkissen
sonnenschirm
ll
wandregal
weizenmehl
merkmalen
röcke
misch
armlehnstuhl
besondere
ef@@
ausgewogen@@
kabel@@
regentropfen
eni@@
umwelt
schmiegt
elastischen
draht@@
holzlasur
beweglich
do@@
rechte
bz@@
beinen
tigen
saft
echtholzfurnier
nde
schluss
dekorativ
dichte
sisal
breite
beiliegen@@
erte
handgewebt
ess@@
ähn@@
us
kurz@@
wandbeleuchtung
trenner
markante
badematte
formbund
gebraucht
salat
temperatur
offen
torten
ung
met@@
noten
legerer
sport@@
marathon
gerne
funktion
wieder@@
spitzenmuster
waschbar
ladegeräten
heit
geschirrserie
hat
pulverlackiertem
befeuchteten
versteckt
stahls
lungs@@
puzzle@@
anders
cket
schaummatratze
lade@@
aufla@@
korb
tagesdecke
wol@@
pflege
fyndig
waldes
obst
wiederverwertbares
s-t-shirt
klettverschlusses
oberste
überarbeitetes
ihres
beigepackte
druckt
herausziehen
haben
lichen
unebenen
spi@@
ärmellänge
massiven
schmaler@@
akkuschrauber
geformter
abe
gericht
herumspringt
leitungen
kunststoffkappen
tage@@
bratpfanne
blickdicht
ge
süße
ph
rim@@
geräusch
leisten
kleinkindern
auß@@
bambusmaterial
langsames
schnelle
entscheiden
rutschfestes
strapazierfäh@@
inhalt
warme
abwischen.kleiderstange
ös@@
reduzier@@
zerlegen
bla@@
top@@
integriertem
schwitzen
wiederholtem
fungiert
fter
kleiderschrank
ausbalanciert
zwiebeln
aus@@
bändern
wirkungs@@
reguliert
klettband@@
gere@@
hängeschlaufe
süßer
glanz
testen
wich@@
kindlichen
kochen
man
händen
drüberziehen
polyesterkantenband
knopf
anhaften
anderem
schiebetür
gummizug
passiert
salz
direkter
entla@@
arme
leucht@@
.nicht
kämmen
gewebtem
anten
ungen
gleichmäßiges
sko@@
laptop
kurzsocken
brot@@
eimer
scher
teil@@
es
matratzen@@
zahn@@
abweisend
lebendigen
gestaltet
extra
ver@@
toll
tes
holzcharakters
format
absorb
bruchfeste
freizeitlooks
verschließen
nacken@@
bindeschleife
den@@
leuchten@@
fest
induktions@@
objekts
markiert
problemloses
schrittnaht
belastung
terior
zubehörteile
wisch@@
normale
kannst
ofen@@
industrie@@
krab@@
gefriertruhe
tra@@
fest@@
dichtungsring
schem
liegen@@
/
verschwinden
saugnapf
hülle
gewicht
trockner
voll@@
matter
stattet
getestet
verdeck
aufgrund
groß
gefrierbrand
fenster@@
federkonstruktion
matten
darüberziehen
kleiderstangen
effekti@@
vermieden
stehen
gerb@@
unter
innenseite
busen
arten
haring
outfit
pralinen
staubfreie
ö@@
kindersicher
hausgemachtes
strickstoff
dings
sicher@@
offenes
ker@@
überzug
eingeladen
p@@
bleichen
reißverschlü@@
stuhlmit
sofas
wasserdichte
unvergleichlich
zusätzlichem
tenem
subtilen
hä@@
tier@@
ks
mehrfachsteckdosen
papiertüchern
echtleder
sorgfäl@@
tischoberfläche
min
guten
ücken
aromadich@@
benutzen
zenti@@
fließender
kuschelhöhle
vackert
wohl
längs
vielleicht
fließenden
fu@@
krei@@
hierauf
karriere
berühren
stopp@@
luf@@
helm
vorsichtiges
entsteht
bettbezug
hören
schwer@@
nach
stellung
rebellischen
deckenkappe
shorts
kabelloses
alltagsgarderobe
struktur@@
weiße
sockel
c.bügeln
regu@@
einzelregale
gerätearten
liert
ster
davon
dvd
scharnier
leute
rutschbeschichtung
0@@
kompletter
st@@
erhalten
dicke
vielseitig
weltberühm@@
sterilisiert
trocknergeeignet
fürs
zent@@
glattes
zugleich
lä@@
mal@@
lier@@
kollektion
aufbewahrung
lebt
flächen@@
flexibel
dämpfen
klassiker
beugt
ßen@@
oberkante
rückwand
verstellt
vorzu@@
hell@@
arms
räumen
stücke
schaummantel
ren
schneide@@
maschen@@
meliertes
mag
wasserabweisender
freistehend
halt@@
möbelstilen
farbnuancen
duftbehälter
palette
stei@@
rechtecken
bauklötze
zerklein@@
variieren
esstisch
17
färbung
trä@@
desserts
pflanze
schwer
behälters
racerback
spaß
wiederholt
ausbalanc@@
hängen
wegen
morgen
lässig
schmutzwäsche
entü@@
bchen
saison@@
inspir@@
verstellen
vorkommenden
bedarfsangepasste
sofort
stear@@
pan@@
stan@@
etc
hin@@
tem
wandbefestigungen
weiterentwickelt
schlüsselbund
kombinierbar
klappern
einsatzes
senkrecht
kun@@
98
itä@@
ausgestellter
farbtöne
schwenk@@
verdun@@
papieren
seitenteil
baumwolle
einrichtungs@@
versetz@@
unehmen
unbegrenz@@
bedeu@@
igere
uchen@@
gemusterten
sli@@
armlehn@@
endem
bequemer
knie
sonnenlicht
balkonen
gereinigt
anwendbar
män@@
falls
sanf@@
strickpullover
matratzenbezugbuntwäsche
freigeben
flausch@@
eleganz
schön
faserbällchen
äun@@
dich
f
formt
ineinander
platz@@
ht
knittern
neuen
beigepackt
ckt
motive
kuscheln
wurf
kühlschrank
polsterkissen
pilling
gesetzten
eller
schöne
verschlü@@
vorbehandelt
dich@@
wasserdicht
erle@@
kaffe@@
chrom
gekocht
längeren
ak@@
omlopp
nä@@
ku@@
tasche
gerader
wäsche
g@@
geschmack
stiel
tliche
kappen
line@@
dienen
schnappbeschläge
kt@@
glasfront
kombinier@@
aroma@@
femininer
tellern
liegen
darf
jacken
lig@@
oberflächen
miert
rutschen
tongranulat
ner@@
lack@@
maschinen@@
kunststoffreiniger
geschmeidigen
toren
sil@@
geschlagen@@
eigt
draußen
geformten
denn
wan@@
modischer
vermeiden
schachteln
anpass@@
figur
baumwollgarn
eingehängt
grünpflanzen
herrenpullover
hindurch
jahreszeit
filzeinlage
ille
kräutern
frotteesocken
blumenständer
eng
athleisure
zehen
praktisch
fruchtiger
methode
recyclingpapier
hautsympathisch
allzweck@@
möglichst
beibehält.nicht
t.@@
kaschmirs
etwas
os
ebenen
kranzleiste
entsperrt
passen
skurar
mel@@
sessel@@
lackiert
tisch@@
knöpfe
heiten
doppelt
ment@@
beitragen
sitzkissen
einzelstück
strukturen
daraus
beschich@@
hellblau
bevorzugt
boxershorts
neue
halsausschnitt
ci@@
normal
lagenlook
gän@@
kragenfutter
pst
ständer
luxus
objekt
interessante
blümchenmuster
deckel@@
mittel
messing
ftung
gebrauch
erstaun@@
sitzgruppe
heimtransport
richtungen
schiebegardinen
council
innenraums
tiger
verleiht
integrierten
großer
stilen
zerteilen
uf@@
span@@
ts@@
häuslichen
küchenutensilien
angst
schmal@@
zie@@
einlage
zeitlosen
größen
stigen
deckenmontage
laufen
in
tiefem
reinigen.innenkissennicht
entfernbare
gieß@@
fettarme
mädchenhafter
besonderen
sind
gezahnte
stä@@
vorratsdosen
tum
bezüge
nahtlose
kaputtgeht
pfannen@@
geschenken
beleben
netzgewebe
hantieren
ger
synthetischem
tro@@
braten
garn
waschung
bewus@@
deutlichen
dekogegenstände
gesuchtes
brust@@
kt
hand@@
glasdose
aber
abgestimmt
mbu@@
geladen
herum@@
strukturierte
reinigen.@@
einge@@
länge
dicker
erfordert
schubladen
einzigar@@
wischen
w@@
mögliche
minia@@
nachwischen.hosenaufhängung
füllen
illustrationen
glasbehälter
nahrungsmittelabfall
antimikrobielle
spannenden
stück@@
feuchtigkeitsspendende
verschwindet
memory@@
komp@@
integrierte
austrocknet
polsternicht
geneig@@
rundet
strahlregler
utter@@
heim@@
füll@@
stimulieren
stadt
schützt
gera@@
ladevorgang
biesenfalten
wasserwaage
kaschmi@@
stil
digit@@
bel
erneuerbares
fenster
verlängert
gefüttert
laufendem
einzigartig
vertief@@
schinken
abweisenden
näh@@
restmüll
ar
max
sichs
präsentieren
schnurlos
ru@@
gel@@
kaffee
voneinander
ständiges
brautkleidern
flor
servierform
ka
upf
di@@
resultat
denken
schmalerer
rundmit
trådfri
kontakt
schulterdesign
ander@@
teils
grenz@@
farb@@
aufgeräumt
the
tunnelsaum
waschbeckenschr
kohlenwasserstoff.polsternicht
gentle
fä@@
dekorationen
netzfutter
kunststof@@
meisterwerke
mittels
komfort
ven@@
aufbewahren
luft@@
warmes
keinen
lasur
supima
ihr
schlaufen
use
robuste
extrem
halb
pfe
ze@@
vorzubeugen.@@
?
plus
teflon
cremefarbenen
frotteehandtuch
schnell@@
unsichtbar
ich@@
verwendung
darüber
schwung
umgestellt
schloss
malen
filz
lauwarmer
aussparung
entfernen.professionelle
nahtlosem
wasser@@
geschirrs
vlie@@
großzüg@@
reis
aluminium@@
mikro@@
aufhänge@@
steckern
kabelklips
nordeuropas
tragebeutel
marmelade
unauffälliges
getauchten
fra@@
detaillierten
bettwäsche
t@@
korbs
durchge@@
+
best@@
griffe
behandelt
lichkeit
bän@@
soll
schnell
schlicht
nied@@
kunstrattan
objekte
garnelen
erweise
abnehmen
saum
anodisierte
advent@@
putzutensilien
tagesbettgestell
fassung
mers
dunkelt
textilbuntwäsche
at
sern
unterbinden
hör
stütze
·
dreidimensionale
handtuch
drehen
öffn@@
leichterer
windel@@
basi@@
karaffe
ven
kleinen
ledergürtel
.mit
körpergerecht
brot
knoblauchzehen
lyocel
küchen
chs
verbunden
bildschirm
seitlichen
flaschenbord
glas
webart
hocker
stretch@@
das
zuklappen
gerichtet
ikea
erhöhen
kontrast@@
ierendem
waschbar@@
tablets
ndes
festklemmen
dabeihaben
verringern
femininen
bündchen
mäß@@
neben
hier
nu
gs@@
kte
trocken
iger
machens
wärmeisolierende
wass@@
ergänzung
schwar@@
volle
ausziehbar
feuchte
­
lebensmittel
inneneinrichtung
frau
garten
sorti@@
stoffeinlagebuntwäsche
ka@@
schreibtisch
lichteffekte
rei@@
100
bonellfedern
zel@@
chino
styling
weltkarte
nylon@@
range@@
links
gefüll@@
ladegerätvor
auflage
sieb
trocknergeeignet.@@
hosen
verbindungs@@
heraus@@
fil@@
lasieren
vliesmaterial
empfindlicher
hochzuheben
wegwerfwindeln
ter
hängekörben
ecp
naturgetreue
inhalts
gargut
baum@@
reibung
luftschli@@
nutzen
speisen
wohnräume
waschgang
electronic
jährigen
dabei
guter
kiefer
hochrutscht
ch@@
starkem
geräuschdämmend
austausch
einpassen
ink@@
itali@@
aluminiumrahmen
dekoration
entstehen
dickes
kopfteil
außer
rolle
bein@@
selbstklebenden
spiel
luftzirkulation
vorhandene
spielsteuerungen
dauerhafte
kar@@
stock@@
sweatjacke
handgearbeitete
barkeit
tren@@
fäh@@
figurna@@
einzuengen
tiefen
werke
handtuchhalter
vorbeugung
geschirrspüler
j
garn@@
unbeschwerten
präsen@@
höhen@@
widerstandsfäh@@
pfefferk@@
talentierten
nussbaumfurnier
lagi@@
wand@@
soft
collage
bezugmit
verdeckt
heruntergebrannt
waschen@@
gebürstet
arbeiter
bela@@
glatte
artikeln
nachttisch
wandmalereien
buchstützen
70
bank@@
kleidern
bis
bi
gewölbte
lockerer
chtes
gründlich
gardinen@@
inneren
konsolen
reinigungsbenzin
regalelementen
transparente
lampe
t-shirt
griffen
gedie@@
leichtgängiger
entspannen@@
druckknöpfen
reisekoffer
schultasche
elektro@@
trennstege
auftauen
glänzender
klingenschutz
scharfe
drei
hart@@
metallmit
endes
designdetails
trocknergeeignet.links
vidga
nähte
flanell@@
gefügt
knopfdruck
rundhalsausschnitt
übergangszeit
vanilleeis
alien
stellen
kaum
erwachsenen
computermäuse
äußerst
sahne
gesundheit
nahtkante
gefaltet
robuster
trocknenden
zer
nachdunkelt
co@@
8@@
energiespendende
anzubringen
eleganter
bezugs
reagieren
kette
sommer
kohlenwasserstoff
unnötigen
80
kombinationsschloss
erscheinungsbild
lte
ard
gepolsterte
interess@@
zunehmen
zulaufende
brett
gt
look
outdoor-aktivitäten
sprü@@
geldbeutel
50
ens
geräusche
wahren
schussfäden
sol@@
iertes
fusselrolle
jersey
nahtverarbeitung
zubereitung
ellen
mikrowelle
feuchtigkeitsausgleich@@
umgedreht
perfektes
vorhanden@@
reinigen.chem
optische
lm@@
dennoch
aufsatz
venti@@
jedoch
ergonomisch
gstauglichem
mode@@
lös@@
auszugschienen
flammengarn
konstruktion
aufbewahrt
seinen
zuziehen
org
klinge
rückenstütze
erhaltung
ausrüstung
stel
konfitüre
abdeckplatte
schiene
würzen
ecken
polstermöbel
stimmungs@@
koppeln
hme
überkochen
keine
holzöl
variiert
figurform@@
befestigung
kantendesign
kratzer
tageslicht
tolle
dern
sollen
servietten
textilien
überarbeitete
grei@@
komfortab@@
top
aluminium
waschbecken
spalier
nicht@@
verscheucht
baumwollsatin
tischmitte
hochkrempeln
handgeflochten
näch@@
eschen@@
kerzenflamme
glas@@
trainiert
vorgewaschen
rollkragen
möbels
farbtönen
getränk
freizeit@@
höchsten
zeitunglesen
verdeckte
bewegungsfreiheit
sobald
tor
tischen
niedriger
ska@@
is@@
tt@@
baby
end
lage
nähen
transpar@@
taschenfeder@@
formgebogener
abdrücke
en.geeignet
regelrechte
süßigkeiten
dekoratives
veget@@
elastisches
quellen
wände
gemütlichen
teppichs
allta@@
kter
pflegeleichtes
messerklingen
gehobene
modischen
haltbarem
gerberei
fester
textur
ton
fähigkeiten
saftrinne
stuva
stilvoll
tionsvermögen
löst
verbreitet
fi@@
gerippte
säu@@
innenkissen
passform
aufnehmen
richtige
allen
dekor
anfangs
ierten
schräg
stuhlgestell
lange
have
erleichtert
en@@
automa@@
sicherheits@@
nachhaltiger
ermöglichen
messen
abwechslung
dämpfern
polyesterfasern
gelegt
hacken
su@@
körpertyp
herstellen
gießenwenig
kakao
kreis
druckbeschlägen
polyetherpolsterung
übersichtlichen
locker
gemahlen@@
maxi@@
uhren
kälte
evtl
erhöhter
fühlen
jährlich
ir@@
edelstahloberfläche
am
füßlinge
teelicht
überflüssig
schreibtischkombination
starke
gewo@@
weichen
effektvolle
kleid
reine
aufbewahrungslösungen
fer@@
konsistenz
farbüberzug
beschichtete
moder@@
gubbarp
feuchtigkeitsspendendem
freie
platte
schränkt
bügeln.hängend
reich
teilen
größ@@
fisch
unterbringen
mittel@@
früh@@
sonnenbrille
deck@@
kragen
stepp@@
mildes
du@@
vielseitige
aubt
baumwollsamt
oberteilen
entspannen
keh@@
ladegerät
200
heißem
geschenk@@
mitsamt
harte
hochschrank
mittl@@
entfernt
elastik@@
wolle
hervorragender
grazil
nachverfolgen
unregelmäßig
könig
schlanke
sol
einzeln
sein
bequemen
üren
seitlich
hervor
traditionelle
erkennen
milde
no@@
wendung
tion
wasch
ank
benötigen
c.nicht
klemme
hakens
det
schneidgut
ultra@@
auber
posi@@
kleinem
prä@@
bruch@@
schlafzimmer
ketten
geräumige
leder@@
vorgewaschen@@
feuchtigkeitsableitende
schleifmittel
lederpatina
herausnehmen
linkshänder
innenkissen@@
festliche
kreuzuntergestell
halterung
yoga
teller
abdecken
2@@
nern
höhere
stuhl
klassische
iere
extrabezug
schn@@
geschmeidigem
nussbaumholz
ma@@
nasse
steht
hübsche
steckdose
hellen
stangen
frequentierte
sor@@
beliebigen
flanellhemd
unserer
fusselfrei
ps
kaltschaum@@
glänzende
messer
gummierte
t-shirts
dekorativen
metallflächen
sicht
sei@@
uniqlo
schaum
romanti@@
nutzt
verzehr
ins
aspekt
herren
kle@@
sichtbarkeit
faserverlust
・
län@@
flauschig
se@@
bringt
gießen@@
bo@@
stabilität
graue
jacquard
dire@@
konsole
temperaturausgleichend
unterkante
un@@
sicher
verglasten
unterbringung
york
vollen
passenden
cds
seitigen
see
kühl
forma@@
e14.@@
diverse
ver
nachwischen.tür
bli@@
volan@@
weiß@@
grün@@
verteilt
holzfaserplatte
noch
sonnenbestrahlung
innovative
luxuriösem
lüftungs@@
teilige
kran
bett@@
einschlag
langen
kühl@@
eiswürfeln
aufsatzwaschbecken
beidseitig
aktivitäten
bt
übersichtlich
ga
tülle
bodenunebenheiten
unterschiedlichste
nachahmen
ärmel@@
ut
vorteilhafter
geschlossener
bettlaken
schwingen
aufbewahrungsbedarf
schule
looks
knusprig
spüle
zeitschriften
bauch
gemisch@@
briefe
auseinander@@
moderne
mittlere
elegant
hakenleiste
chil@@
kosmetik
trifft
feinfädigen
flauschdecke
ändert
zarten
hem@@
hemd
besonderem
en
häuf@@
reiche
schränke
befestig@@
hafter
blickfang
bon@@
meister@@
geschmackvolle
tritt@@
masch@@
hosenaufhängung
ling@@
standfestigkeit
behältern
zusätzlichen
kaihara
d
strauß
mahlzeit
e@@
dry
digitalbox
hitzefestem
cht@@
abschütteln
rä@@
tten
trennsteg
stand
wollähnliche
schli@@
blen@@
muster@@
-sitzig
angebrachtes
auge
leger@@
dig@@
superwarme
materialien
ne
spülmaschinenfest.@@
lockerem
standard
boden@@
lichem
lässiges
verzinkter
kühler
nachwischen.@@
warmer
reinig@@
beliebtes
stängel
nebeneinander
ausdrückt
hüllen
strapazierfähiger
este
übertöpfe
gefrierschrank.spülmaschinenfest.@@
einzusetzen
schweißtreibenden
dab@@
haltbaren
waschen.nicht
klettband
öffnungswinkel
tz@@
bitte
,
geld@@
münztasche
wachsen@@
disney
schneiden
nal
wollen
jeder
gewürzgläser
bisher
nachwischen.ausziehtisch
ur@@
unnötige
ichter
hobbymaterial
verlängern
son@@
tig
kühlen
schließend
zep@@
gewünschten
eigene
kapuzenjacke
größere
industries
individuelle
wunderschön
sicherer
versi@@
furniers
gerbverfahrens
schrauben
merin@@
gen@@
seiten@@
element
unauffällig
handtasche
reif
wärmende
integrierter
karo
rett@@
schubladenrückseite
sch@@
gelegen@@
kaltes
vorgebohrte
abnehm@@
schä@@
unverwechselbare
alen@@
schnit@@
ganzjähr@@
grundmaterial
rostfreiem
twe@@
inbusschlüssel
kuschel@@
nachwischen.korpus
durchgefärbt
ball
praktischem
außen
lack
schw@@
bremse
futter
färbt
vielfältige
filtern
möbelshampoo
bord
ä@@
faltbarer
stapelbare
schnitten
protein
normalen
schreibtischplatte
unserem
inklusive
schmecken
gehärtetes
mitteldickes
coole
imprägnierung
botanischen
unterbr@@
strahlt
nachwischen.spülmaschinenfest
schwi@@
verwendet
mann
kohlenwasserstoff.@@
figur@@
müde
diese
strand
armen
drückt
fixa
netz@@
innen@@
effektives
gebürsteter
gummizugs
wirkungsvoll
bein
ecke
verändert
gebügelt
einfassungen
flur
ki@@
frischer
umgang
glasur
kleinstem
schnei@@
ani@@
90
halters
partie
woll
dunkeln
vorwärmen
verschieden
str@@
x1@@
man@@
chtem
jeans
beid@@
überdachte
handumdrehen
unterhosen
stri@@
häufig
zen
gürtel@@
innenkern
yo@@
rückgrat
easy
besten
röcken
basquiat
schubkästen
ke@@
sparendes
heits@@
außenkanten
zarter
rezep@@
gekreuz@@
triebe
geschaffen
eln
beliebte
sowie
gepflegte
zustellen
taille
on@@
breit
starkes
individuell@@
erneuerbaren
zubereitet
wal@@
viele
genutzt
rahmen
abstand
öl
18
details
schreibtischzubehör
mod@@
zeich@@
dig
aquaculture
unterschiede
herr@@
sonnenschirme
raum
stabi@@
dezenter
samt
sparende
weise
nächsten
60
regal
überrasch@@
windeln
kunststoffrahmen
entfernen.@@
matratzenicht
oben
en.für
an-
kleines
zerbricht
praktische
skin
sieb@@
aufgeraute
gestellmit
möbeln
ungeschützt
langsam
anfang
loo@@
zahlen
deinen
vitrinen
bri@@
hammer
ray@@
lagen@@
nummern
möbelstück
leicht
schließt
uni@@
mustern
rutschgefahr
schattenspiele
matratzen
neu@@
va@@
trend
geöffnet
wenns
matt
gummi
eiten
na
brust
truhe
verdeckten
schmeckt
höchst@@
einfall
farbü@@
einla@@
geflügel
m@@
wachstum
tiefentladung
wegnehmen
ex
schicht
feminin
hil@@
einsatz
stuhlbeine
waschbaren
genden
schnitt
zwir@@
schützen
preiselbeeren
kissennicht
komfortablen
anhalt@@
dünnen
verpackt
luxuriöser
con@@
grün
kleineren
subti@@
exakte
montierten
stehende
abgestimmten
erforderlich.den
dichtgewebte
hackfleischbällchen
farbenfrohen
fußbett
fischzucht
hinsetzen
durchdachten
ein@@
pack
kanne
sonnenschirmfuß
spots
naht
reiniger
n@@
stimmungslicht
sser@@
ausgerichtet
liches
mensch@@
ultraviolett
beschichtet
bedien@@
socken
löffel
furnier
spiegelglasmit
kürzer@@
kin@@
anschluss
wick@@
einfachere
polyesterwattierung
work@@
igkeiten
zieht
normalerweise
bügelsäge
körperna@@
ferse
hafer@@
rechts
nahtloser
pflegeleichter
nehm@@
verborgener
einzelbett
bettchen
ko@@
spinnfärbung
frame
collagen
maserung
stufe
verbessert
aufge@@
eichenfurniers
verdünnt
schmaleren
fernseh@@
temperaturmind
trockenem
wi@@
fußstütze
stoffen
sofa@@
uren
attraktive
leichteren
anderes
beauty
federanteil
bankkorpus
kissenbezugnicht
minimier@@
tosterö
tiefer@@
dünnem
hervorragend
wach
gestellreinigung
saugfähiges
hur@@
fantasie@@
schoko@@
denen
sichtbare
dekorieren
nte
gleitend
nassem
perlmutt
gummiüberzug
nah
seidigem
doppelklebeband
einmalig
stöße
flanell
durch@@
hitzeverteilung
babyhaut
wärme@@
gelen@@
spielend
keramischen
imprägniert
beweg@@
druckbeschläge
heranwachsenden
baumwollähnliche
höhen
wollteppiche
glasfläche
marin@@
kürzeren
antihaftbeschichtung
zurücklehnen
gerollt
schonen
spannbettlaken
doppelhaken
waffel@@
&apos;
dickerer
umt
120
i@@
us@@
mat@@
wäschekorbmit
figurformenden
beispiel
fisch@@
ierte
licht@@
bern
unerwünschten
zusammenhalten
zimt
freude
aufger@@
minimi@@
auchen
badezimmer@@
team
beliebter
zucker
wiederfinden
ste
nahezu
pflegen
iges
laminierter
portionen
op@@
verbinden
geformt
ingen
märchenstunde
stemp@@
fenstern
ve@@
attraktiven
lieblingssessel
verbesserte
funktionalität
pre@@
kopfkissen
1@@
haltbar
dicken
feuer@@
messer@@
hände
denim
5@@
lat@@
trocknender
wellington
gespart
freizeit
eingearbeiteten
rahm@@
schälen
teile
bra@@
senf@@
verteilung
fen@@
gewürzen
reinigungsmittel
beschä@@
jerseystoff
stift
ziehen.einlaufen
dämpfer
enthalten
ot@@
erhellt
sammler@@
ta@@
computer
lampen
liegt
fa@@
elastisch
essen
emaill@@
halter@@
flasche
spinn@@
doppelwaschbecken
pullover
mög@@
wandschmuck
puppen@@
stilvollem
kleider
unterstellen
energiegeladenen
supi@@
trocknen.@@
gerüche
anstreichen
entweder
leichter
ssen@@
taschenfederkern
justiert
ans
flaschen@@
kontro@@
tafel
origin@@
flust
büffelhorn
fro@@
bestes
winter@@
watte
lamé
knopfleiste
mädchen
pfosten
schuhaufbewahrungen
schätzen
z
kzeug
tagesbett
dehnbare
gebr@@
modische
stifte
vorteilhaf@@
setzen
hlen
bare
bringen
antrieb
montiert
möbel@@
geschmackserlebnis
variation
gewährleistet
ären
textil
mittlerer
kunststoffbeuteln
frischen
tran@@
eren
ün@@
harmonische
kanten
verhindern
kunsthandwerker
weg@@
unseren
ausgestell@@
licht
wäscheberge
helligkeit
wichtige
stu@@
echtes
dünn@@
langstapelige
umklappbarem
i
stange
erfordern
chern
länger
pollen
einen
friert
tel
gleitschienen
linien
steuern
wattierten
raglanärmel
regen@@
liegegefühl
bequemes
ste@@
waschmaschine
mikrowellenherdgeeignet
reichlicher
akzen@@
tur
klemm@@
heimel@@
lockeren
fel
alternative
geruchshemmenden
ze
frucht
richtbarer
netztaschen
angenehm@@
stützen
koordin@@
tabletts
sortiment
body
of@@
hochheben
gend
schmiegsamkeit
gsames
kunststoffetui
beton@@
modi@@
verfahrens
armlehne
telef@@
pax
haut@@
bis@@
tem@@
stimmungsvolles
ring
lang@@
stühle
weiter@@
kurzer
www.utz.org
aluminiumzwischenschicht
schnappverschluss
ton@@
dingen
umspielt
mon@@
kerzenhalter
extremer
lieblingsmotive
ema@@
abschütten
nur
faulenzen
bleiben
effektive
gegen
versehentlich
einbuchtungen
geschlossenem
vorwaschprozess
lichtkegel
wäldern
kinderzimmer
kompakt
riemenantrieb
umzug
töpfe
stabilen
dehnbarkeit
binde@@
stabilem
dreht
haltbares
topfboden
fei@@
gelbe
öffnung
com
femininem
ange@@
magnetischer
lösungen
reisen
sets
bau
perfe@@
3@@
mitgeliefert
klapp@@
spannriemen
tert
stehend
pass@@
nahtdetails
lernen
boxen
dezen@@
pfiff@@
auflagen
festere
direkt
baumwollstoff
arre@@
herkunft
hautsympathisches
kasten
dann
tisch
unruhige
aus
beschläge
aufwärmen
früchten
unteren
backofen
stundenlang
leichtes
blendschutz
zeh@@
fern@@
energiekapazität
innere
bügelloses
aufziehen
bänder
pfeffer
einstellbarem
strapazierfähige
unbehandeltes
erhältlich
kunstszene
anliegende
körben
rett
kamera@@
kompaktes
sollte
fre@@
blaubeeren
ca
unter@@
kompletten
ktor
sauberzuhalten
griffmaterial
gibt
bügeln.nicht
einzel
unterwegs
geschirr@@
dickeres
mark@@
lachs
dchen
oberteil
beobachten
schaben
aufspannen
kleidung
unverwechselbaren
leinen
einkauf@@
lo@@
hafte
damen
ed
tiere
läufer
überarbeitet
bo
leeren
angenehmes
wat@@
deko
schütteln
trach@@
zeit
mikrowellengeräte
kalte
aufhängehaken
kunden
arbeiten
m
hes
weizen@@
behagliches
hochwertiger
tv-zubehör
schuhen
stanzmuster
kreiert
ben
angenehmem
fußkappen
lässt
zur
zeit@@
nütz@@
schubl
arbeitsplatten
münzen
einander@@
r
zwe@@
accessoires
aufbewahrungslösung
schließen
meisten
char@@
ausziehboden
aufteilen
aufgelegtem
und
schiebetürrahmen
obst@@
blieren
herunterfällt
mo@@
feinen
augen
gefülltes
möbelkühl
verschüt@@
effektiv
dimensi@@
angeschlossen
stabmuster
auffä@@
aroma
werkzeug
weihnach@@
verstärkt
kra@@
winkel
sel
loser
büchern
vichy
karte
einfaches
setz@@
lecker
größten
mehrerer
hygienisches
atmungsaktiver
gere
tung
durchdacht
rock
o
ihrem
abnäher
mil@@
bequem
tiert
recht
drehstuhl
einfarbiges
entenfedern
gehen
umgestalten
halt
besteckschublade
geschmeid@@
einstieg
sö@@
stahl
walken
seitenteile
essensreste
500
haf@@
eingestellt
beständigem
vergnügliche
x@@
entspannte
nt
col@@
ien@@
des
sehr
dekoriert
notwendig
ien
lauf@@
kissenbezugfeinwäsche
könnten
h@@
auflageschicht
regulierung
roste
abtötet
entspannung
federn
kameraden
erhält
stell
erschwinglichen
funktion@@
geren
a@@
klar@@
funktions@@
entwicklung
feinmotorik
verstärken
rohstoffe
leuchtdioden
mobil
ate
nudeln
netz
hinder@@
pfel
cm
variabel
legere
abgenutzt
dill
super@@
esstischen
barhocker
zusammengesteckt
19@@
blickwinkel
verstauen
gleiten
onal
tischplatten
fleece
trennung
compu@@
maßen
mahlwerk
j@@
matratzenschutz
zweig
geklickt
du
jacquardgewebe
tositzen
optimale
untergarn
fuß
ponte
tradition@@
gerichtete
down
rahmens
wander@@
mariniert
saubere
kosmetik@@
melaminbeschichtete
le
authentisch
anatomisch
buch@@
bä@@
rund
überzeugendes
bestens
nützliches
rutscht
hüllt
gemahlen
stücken
vorrats@@
hmen
schnalle
zählen
vorhandenem
him@@
anti
gesicht
räumlichen
kochtemperatur
kissenbezug@@
empfiehlt
biegsam@@
schränken
har@@
kernholzpartien
akzentfarben
orchideen
teppich
wäch@@
umklappbare
stung
können
verschlussmechanismus
polster@@
tag
teppiche
päckchen
arbeitsfläche
ultimati@@
dosieren
stilvol@@
polyester@@
f@@
elektronische
ut@@
aktualisierter
geriffelten
ungswinkel
materialkombination
entsprech@@
deshalb
scheuern
krawatten
garderobe
oberschicht
zusammenstellen
minderung
papierqualität
v@@
stuhlbuntwäsche
gearbeitet
fensterputzmittel
kaffeebohnen
nackenstütze
.@@
kartoffel@@
bar
gestaltung
gestreifte
slip
schrägen
höhe
leichtgängige
läuf@@
kochgerät
höchst
geschützte
pyssla
airism
richtiger
gerätschaften
touch
bu@@
kani@@
glaseinsatz
ausgeprägten
sneakern
hautfreundlich
natur@@
ms
hellbraunen
privatsphäre
pulsierendes
sitzkomfort
leichtem
gurt
ändern
persön@@
kleiderstapel
mm@@
entlastung
kabelöffnung
zuschnitt
zubereiten
versetzbar
baumwollbezug
elegantem
sp@@
schutzhülle
gäng@@
abwaschen
gewebte
hohem
traditionellen
arbeit
gsam@@
kinderhaut
dünne
einlaufen
jackentasche
grafi@@
visuelle
kabeln
reinigen.bezug
hrt
zucker@@
wärmeisolierend
harmoniert
suppe
ruck@@
fächer
verchromtes
set
luftiger
schne@@
dreifache
aufhän@@
ihn
kurz
vermindert
verbindet
besser
men@@
vorzubeugen.rückenkissen
ausgießen
salat@@
sai@@
räume
bar@@
ausdruck
leinens
ati@@
zugelassen
raumteiler
clever
teig
under
post
glitzer@@
zusätzliche
leistungs@@
pflanzlich
gleichmäßig
isolierung
quer@@
pier
verbrauchen
bezugvor
handtücher
schme@@
stuhlbezug
massivholz
konzentrationsvermögen
silikonunterseite
bereiche
finger@@
bro@@
nötig
rückenmuskulatur
blumenmotive
dunkel
ziehen
helfen
kinder@@
wagen
reinigen
nähr@@
innen
gerösteter
kabellos
strapazier@@
west@@
stunden
gelegenheit
lern
automatisch
design
kragen@@
stoffs
rundhals
verkleckert
park@@
letz@@
vorräte
gefärb@@
immer
e27.@@
ftet
ges
sportsocken
einsetzen
holzmit
rund@@
schweden
fla@@
entasche
szeit
butter
raubt
regalelemente
enkopf
leiten
stütz@@
schritt
sorgt
passepartouts
dämm@@
erneu@@
dende
doppelbett
res
angenehm
vorwäsche
z@@
ballaststoffen
handwerkscharakter
regen
unerwünschte
modischem
fällt
kinderhände
dehnung
stick@@
ron@@
streichen
rost@@
säuren
aut@@
ebener
digital@@
umspiel@@
ob
fussel@@
gesteckt
rostbeständig
vorderseite
baumwoll@@
fintorp
sches
bekommen
mindern
arbeitsplatte
höhle
pilzen
puz@@
schüssel
rundum
crackern
schirm
geschwind@@
taillierte
größe
intensi@@
weberei
formelle
fernsehgeräts
geschä@@
kissenschoner
7
schmusen
kocht
net
tige
alo@@
abdeck@@
höch@@
stahlsei@@
strickmuster
verträgt
mi@@
wurzelgemüse
blü@@
ment
küh@@
ä
massiv@@
abweisender
eigentlich
select
loses
bettzeug
würziger
ordentlich
oft
dickeren
32
spiegel@@
typischen
unterschiedlichen
gasherd
verbirgt
lithium
zeigt
ield
ausgema@@
anfeuchten
allgemeinbeleuchtung
85
bildet
hle
ph@@
rahmen@@
pp@@
passend
luxuriöse
hlt
gewür@@
mehreren
seitennähte
geeignet.für
griff@@
irdots
ennt
blumentöpfen
böden
kohlenwasserstoff.hängend
dar@@
gege@@
beanspruchen
brennzeit
unangenehmen
geschnittener
ur
kohlenwasserstoff.matratze
fr@@
topf
langleb@@
bewegungsmelder
vermei@@
mahl@@
ungewöhnliche
nahtlos
entfaltet
auftauchende
anbrennen
entlastet
farbe
doppelgarn
rück@@
beginnt
metalldrahtkorb
hne@@
schmalere
mar@@
eit@@
verwahrt
tzen
enträ@@
durchscheinende
verschließ@@
flechtgürtel
innov@@
gemindert
geruchshemmende
drahtnetz
bettseiten
wirkt
aufbewahr@@
ssel@@
ed@@
fächergröße
konzentration
hausgema@@
punktmuster
heller
abwischen.@@
wenig
tagen
flecks
klassischem
dadurch
tetes
wasserdichten
beschreibbarer
ba@@
schrubben
maskulinen
staubwedel
verzinktem
bilder@@
voller
stützende
verbindungskonsole
rost
erwei@@
stoff@@
zustand
erinnert
brombeeren
bewegungen
menschlichen
abgeflachter
tradi@@
mit
dampf.chem
verkehr@@
sse@@
jahr
anat@@
zu@@
reiß@@
latt@@
strahl@@
rhab@@
portioniertem
trocknen
saugnäpfe
midi
genäh@@
erstaunlichem
wir
kindern
ale
herausgezogen
frostglas
herausnehm@@
rückwärtige
braun
tischbock
geschir@@
behandeln
abrutschen
taschendesign
raster
brille
saug@@
dressing
ringschnalle
gabe
dauerhaft
it@@
sitzwinkel
-handlicher
©
hitzebeständig
lligen
leben@@
polstern
komfortabler
geschützt
aufräumen
desodorierendem
spiegelung
etagere
rippen
gla@@
aromadichter
wirk@@
gestapelt
griffbereit
funktionennur
mobi@@
kaltschaumschicht
erhöhte
teleskopgriff
justieren
leichte
rounder
filigranmuster
farben
verändern
tragen
schnapp
hab@@
optisch
hnen
kti@@
anfühlt
hejaren
aum@@
hau@@
&@@
daunen@@
daheim
enen
aktualisiertes
clara
ein
fleck@@
würstchen
stapel@@
kohlenwasserstoff.innenkissen
gerecht
verschließt
drunterziehen
ganzkörperspiegel
mädchenhaf@@
ing@@
schublade
vollnarbenleder
2.4
used
allnächtliche
beständige
hren
vielseitigen
verdunkelnde
rillen
outfits
stuhl@@
trägt
vorgebohrt
laserwasserwaage
neuem
nachtruhe
kombinationen
3er-sofa
raffinierte
gerundeten
kräftiges
hängend
soziale
to@@
sü@@
schreiben
stabiler
gratulation
druckknöpfe
schonend
rundem
koordination
sicheres
ten@@
hause
problem
servie@@
weiteren
brauchen
dübel
trocknend
nacht@@
papier
fahrrad@@
milch@@
authentische
fugen
kennen
grifföffnung
x5@@
li@@
erwärmen
mehr@@
zugunsten
meer@@
zimmer
einlegeböden
hygienische
usb
pie@@
kapuze
wellen@@
bedeckt
aufzubewahren
latex@@
dünnes
fernbedienungen
schubladenfronten
verstärkter
mer@@
sitz@@
astspuren
wertstoffe
bohrlöcher
sensori@@
ähtem
geraden
ker
tig@@
reißen
ornamenten
annimmt
blau
bezogen
einfach
gemütliche
polster
wachs
außen@@
korn@@
ofen
recycling@@
blu@@
heben
verriegelungsmechanismus
gegeben@@
kalt
nicht
flure
vanille@@
pol@@
onia
fußböden
tischgröße
wasserfesten
vorhandenen
en.@@
stab@@
jogginghosen
lässigeren
funktionen
dekostücke
fallen
farb
sicherheitsgetestet
jedes
wandschienen
glattere
überbelastung
lieren
spür@@
auft@@
zü@@
griffmulden
hochwertigeren
großzügig
portion
len
strümpfe
sk@@
ösen
schütten
seitenbahnen
schmeichelt
spritz@@
knuspriger
deine
um
fettsäuren
schwarz
geschütztes
fol@@
revolutionären
wasserverbrauch
frühlingsfarben
helles
liges
merk@@
che@@
betten
einteiler
flecht@@
fügt
wer@@
spiegel
abperlen
gehören
atmungsaktive
wattierung
milch
fal@@
zeug
klei@@
abnehmbarer
sorgen
gs
kern@@
polyurethan
ausrichten
gesp@@
feinwäsche
zu
einflussreichen
verdeckter
gerichtetes
besch@@
lebensmitteln
chiffon
geschmeidige
c.chem
schwedische
scheuer@@
stützt
uhr
ramie
schlichte
igkeit
gardinenfutter
geschr@@
mixgetränke
dehn@@
rille
bezügen
spot
seifenlauge
care
frü@@
körpergewicht
ihre
nachbehandeln
steppnähte
ware
angeordnet
nützlich
zuta@@
geordnet
haus@@
nachlasieren
pin@@
zusammen@@
waschmaschinenfester
auch
anhaftenden
söckchen
kunststoffmaterial
entspannten
pfanne
folgen
scharfen
dinge
natürlicher
ssi@@
aufschnitt
treteimer
waschpro@@
kno@@
nuss@@
mikrofaserstoff
a4
fasern
te@@
regal@@
zweck@@
soßen
wirbel@@
damit
chel
für
dimensionierte
komfortabel
lecker@@
falt
dimmer
filzstifte
einstellbarer
feuchtigkeitsspeicher@@
setzt
feuchtigkeitsausgleich
schnittführung
gefü@@
garantiebroschüre
nachwischen.4
perfekten
wertigkeit
gep@@
einzelportionen
am@@
inter@@
charakter
gelegentlich
halter
stromnetz
verstellbarer
anbringen
mobiltelefone
freies
mitteln
spandex
bezugleichte
zusätzlicher
küche
liege@@
winddichter
knien
erlesener
uer@@
erem
riktig
abtrocknen
proteinquelle
feuchtem
vi@@
lässiger
unerwartet
her
ablaufen
regulärer
mechanismus
lauf
reflexstreifen
hin
geometrischem
vorgebohrten
tragisches
echte
esstische
schräge
herzschlag
papiere
geformte
reduziert
barer
minimale
tickgeräusch
weihnachtsbaum
anheimelnde
pflanz@@
herkömmliches
frischem
ölbehandelt
tiefer
einträchtigt
magnet@@
getragen
back@@
karamellnote
kom@@
italienischem
hervorragenden
trockenwischen
detail@@
fleisch@@
stands@@
gerichten
entei@@
form@@
poly@@
komfortmaterial
rauch@@
65
me
lässigen
umplatz@@
gleichgewichtssinn
kasserolle
weichspüler
rostfrei
la
dehnbarem
elle
ore
käse
indig@@
glattem
kur@@
teelichthalter
ursprünglichen
tendesign
reißverschlüssen
weichere
schließ@@
unfugmachen
aga@@
steh@@
kunst@@
gleiter
oni@@
bleichen.@@
dehnbaren
frauen
individu@@
abdeckung
gefalteter
feiner
perfekt
tauscht
nachfüllen
garantie
benötigt
gedächtnis
möblieren
inkl
sonnenbrand
lederfür
entlasten
ere
abweisen@@
grillbesteck
naturfaser
regelmäßig
e27
material
vorderen
gelagerter
bleichen.nicht
abstauben
tischer
sicherheitsrollen
ionen
schutzlack
haften
tieren
separat
ig@@
speziellen
dillsoße
kräftigem
tüchern
spe@@
geruchshemmen@@
atmungsakti@@
verantwortungs@@
nahtloses
minuten
reguläre
nachhalt@@
zukunft
änderst
woll@@
sierter
cken
spro@@
durchmesser
blume
langarm
belag
kunststoffbeut@@
mige
hne
sondern
kindliche
gesammelt
anteil
welt
neues
ihrer
feuchträume
getrunken
geschnitten
mitnehmen
bi@@
matte
feinfädige
gewinnt
komplettes
abgerundete
komfortbezug
fen
protection
lamp@@
tet
sitzfederung
solarz@@
kamerad
bereit
trocknergeeignet.nicht
neig@@
tragekomfort
ve
hängeleuchte
blumen@@
ku
riegel@@
sich
solarzelle
falten
ank@@
maschinenwaschbaren
einer
beinbündchen
spielzeug
spülen
tetrachlorethen
türoberkanten
appeti@@
kammgarnbaumwolle
präsentiert
sand
textilschirm
stär@@
alle
ergebnis
feldspatporzellan
formstabilität
fehlen
kratzfestem
c
bal@@
eingehüllt
miniaturausgaben
bun@@
anordnen
gefrierschrank.spülmaschinenfest
fußgeruch
reichweite
merkmale
mamas
dünner
ausgearbeitete
luftiges
spannung
beine
eckbettsofagestell
baumwollgewebe
leinen@@
teppicharten
aufkle@@
9
drin@@
deckenden
charm@@
zuletzt
knö@@
kaltschaumpolsterung
dimension@@
brause
verschieben
waschkommode
ja@@
schrankin@@
formstabil
austauschen
gemütlich
terrasse
ausziehtisch
elastischer
et@@
drehen.professionelle
ft
kombiniert
nie@@
verchrom@@
hel@@
gesamte
ring@@
tritthocker
sauberen
nachts
28
rein
unterschrift
sommergarderobe
ill@@
zwei@@
geschlossen
taschen
umfasst
chel@@
biegsam
160
ab@@
zä@@
ja
entwick@@
zeitschri@@
jahrelang
allem
pfefferkuchen
feines
gedächtnistraining
gesch@@
stoffüberzug
stilvolles
vielsei@@
delika@@
rechnen
verursachen
mu@@
aktualisiert
milben
gten
handtuch@@
vorrä@@
gelöst
kurzärmeliges
teil
gewürz@@
kontur
mögen
körper@@
winddruck
schatten@@
sauberes
nun
hochwertig
ultimative
beiliegenden
sichere
mah
erforderlich
säume
abfluss
verbun@@
unikat
optimal
stilvollen
wäschesack
rot@@
personen
ursprüngliche
gekür@@
eselsohren
lor@@
maßeinteilung
aktualisierte
effe@@
untere
wer
oberseite
la@@
dekoschale
me@@
bahnen
bezuglinks
schmutzabweisend
schläft
erhältlichen
ringe
körbchen
aub@@
unbedenklichem
darin
kunststoffeimer
lich
cker
breiteres
überblick
geometrische
genuss
fel@@
figuren
duft
hö@@
pinsel
übereinander
gradliniges
arbeitet
kei@@
lediglich
gewaschen
ärmelenden
zwischendurch
matratze
füllung
ff
enormen
mikrow@@
stapelbar
gläser
pal@@
gesalzen
punkt
and
außergewöhnlichen
indien
farbkontraste
schmalste
kurzes
reinigen.den
auswahl
geflochtenem
6@@
frische
sitzpolster
dimmen
ecksofa
entwickelt
lieben
ausweis
regalhaken
diskret
hals
licher
erwachsene
aufeinandergestapelt
ess
färbemethoden
zweite
trenn@@
stückchen
wasserabweisende
pi@@
unterschiedlich
wickeltisch
laminatarbeitsplatten
version
kunsthandwerkern
!
atmungsaktiv
kontrolle
gestreutes
edlem
pri@@
polstermöbelserie
elektroinstallation
kompakter
beugen
schön@@
denk@@
tik@@
akti@@
sport
basic
pflegeleicht
unglaub@@
unde
bequemlichkeit
gerichtetem
zwie@@
prägungen
kreativität
mercerisierter
funktioniert
zusammenklapp@@
wollteppich
umzustellen
spülmaschinenfest
gras
bezugbügeln
los
kaschmir
ssp@@
haft@@
hohl@@
schwedens
miteinander
organisierten
än@@
ca@@
ergänzt
kor@@
nes
gestellt
henriksdal
steck@@
struktur
untereinander
telefone
ärmel
großzügige
mund@@
ai@@
silikon
sam@@
behälter
glatterer
varianten
abtropfwasser
schneidet
klettb@@
einsätzen
hen
weichheit
auslaufen
pul@@
zitro@@
algot
länger@@
gehör
befestigt
zusammen
aufgaben
transportieren
modernen
th@@
tieferer
verdichtetem
kind@@
ele@@
aufwärmens
br@@
gewichts
industriecharakter
im
reißt
waden
der@@
stück
einsatzbereit
knitterarmer
lebendiges
geschütz@@
zusammengeklappt
scharniere
nyboda
hinzugefügt
hüften
natürlichen
gummiband
rands
gewöl@@
verbess@@
stretchanteil
klet@@
saisonalen
trotz
weniger
feuchtigkeits@@
anpasst
pflegeleichtem
elemente
haferkekse
fangen
nd
flachen
pe@@
inn@@
stige
erfä@@
akzentfarbe
rippstrick
sofa
lüftungsgit@@
pflegt
gx5@@
runden
inspiriert
unterziehen
behaglich
praktischer
bateau
kapuzen@@
verwendbar
selbst
stuhlrücken
abgerundeten
vor@@
schich@@
dvds
mü@@
lin@@
d@@
entspann@@
lau@@
l
tion@@
hier@@
beinausschnit@@
farbstimmung
geb@@
26
höhenverstellbare
isolierend
festes
senkung
ör@@
schiebet@@
heizkosten
gleitschutz
fall@@
latex
chen
schnelles
holzsommermöbel
reich@@
20@@
schreib
eingefasst
frottee
unglaublich
geripptes
le@@
verlänger@@
kleiderbügel
künst@@
erhöhung
koffer
flecken
zuerst
verbindungspfosten
(
schwenkbar
haare
mikrowellenherd
leger
sonnengereiften
flügel
anfeuchten.professionelle
handrücken
techni@@
ür@@
bewegung
feuchträumen
haken
taschehandwäsche
vom
lendenwirbelstütze
muffins
spinn
ler@@
g
problemlosen
ber
lyocell
grundstoff
gra@@
abmessen
auseinanderzunehmen
fotos
spiele
wild
wird
rückseite
motiv
diversen
lewitt
beschlag
ig
brotbelag
nutzfläche
umweltfreundliche
klettbandverschluss
umzu@@
erst
warm@@
nuss
quer
e14.200
türschmuck
pocket
bleibt
aufhängeöse
schiefer@@
handschuhe
mö@@
hitze
versetzbaren
geeignet@@
einheit
produkts
slips
versehen
dickerem
nen
farbiges
memoryschaumkern
eigener
schultern
neutrales
unterhemd
garnen
hänge
deckplatte
sitzhöhe
rip@@
lebens@@
kaka@@
einkuscheln
die@@
öffnet
pfannkuchen
wichtig
stem
abgehoben
wechseln
etikett
kivik
aufs
mithilfe
trägertop
gewünschte
verschiedenfarbigen
sper@@
famil@@
gartenutensilien
knitterarm@@
tomaten
schraube
willst
weiter
gitter@@
während
aufstehst
spar@@
anlass
produkte
auszieh@@
ultra
keith
hintergrund@@
andere
stickerei
sitzen
gesteuert
will
deutliche
zen@@
jogginghose
)
pflege@@
ausgezeichnet
strapazierfähigen
drahtkorb
tell@@
kratz@@
rest
quarzuhrwerk
arbeitshöhe
stellfläche
klassisch
trocknende
gespül@@
trockenen
kunststoff@@
si@@
bücher
sel@@
hervorragende
gemü@@
klassischer
rechtshänder
hochgeknöpft
tischplattemit
vari@@
blümchen
heute
ester
silhouette
tür@@
schmutzabweisenden
höh@@
ck
kabel
mrd
bürstenkopf
pen
kallax
original
fiel
einzelnen
hoch@@
bio@@
gepäck
herausragenden
rattan
einfacheres
kreide
bügel@@
gewagten
schlü@@
schar@@
gießen
schnitts
unterzubringen
seitentaschen
eingelegt
schauen
form
besorgt
verschmutzung
app
kompaktgarn
zudem
viel
erhellen
übersichtliche
metallrahmen
versetzen
erfüllt
bei
schneide
rutschfest
gefüllt
massivholzoberfläche
schmale
über@@
stoßfest
breiterer
måla
niedrigen
haupt@@
becher
geräuschloses
tr@@
losem
samm@@
nahtband
kal@@
außergewöhnliche
tete
hemdkleid
uchen
din@@
innenbeutel
rech@@
gleich@@
sportsachen
natur
mitbringsel
selbstentladerate
onen
stra@@
trösten
stufenlos
erwärmen.geeignet
einzel@@
pyjama
wohnzimmer
met
darauf
matratzenbezug
oberen
ohne
kohlensäurehaltige
sodass
griffs
wagens
deutlich
verstellbar
gefrierschrank.spülmaschinenfest.deckel
kleinere
leichter@@
zeu@@
st
akzente
bereichen
polyesterfüllung
stelle
ften
ausgewogene
gefärbten
jean-michel
füße
temperaturregelung
tragegefühl
aller@@
betthimmel
tere
gungen
gem@@
deko@@
geschmeidigkeit
polsterung
wurde
figurnahem
gepflegt
fischerei
ges@@
freund@@
tropf@@
tassen
ordnung
2015
all@@
ausziehbare
teppichreinigung
b
massiv
tys
textilreinigungsmittel
konturen
bh
hal@@
lon
bö@@
fleckabweisend
markan@@
salz@@
gespült
beides
lounge
bie@@
ü@@
freizeitlook
chter
dezenten
performance
gravad
schüsseln
stauraum
körpernahe
zweimal
temperaturen
lei@@
gefahrenrisiko
el
verschü@@
za@@
jachten
märchen
schuhregal
babys
ende
wärmequellen
strapazierfähigem
lage@@
gelagert
sanftheit
wel@@
gleichen
indem
hochwertiges
stimmt
schaltet
feuchtigkeitsausgleichendem
schauenden
bund@@
tragevarianten
frisches
kon@@
grund@@
tischdekoration
linie
benö@@
betätigung
körperwärme
kühles
zweifarbiges
u@@
längere
gesündere
vorgang
kante
möbelbürste
24
spla@@
cami@@
alen
zirkulieren
freiem
ganze
garten@@
haar
lüften
kleiderstange
verhindert
gebürstetem
konstru@@
fit
ro@@
aneinander@@
nachwuchs
farbenfro@@
wärmstem
metallnetztüren
vorzubeugen
desodorierende
unangenehme
wein
noppen
satinstoff
cht
langlebig
rühren
püree
wunderbar
&quot;
ausch@@
schlauch
sichtweite
abklappen
verwöhnt
monate
natür@@
superwarm
zugriff
dusch@@
komfortables
metallring
leuchter
aufhängen
zurück
baumwollmischung
ppt
elegantes
ungestört
bank
rückseitig
geschichte
technologie
holz
zeichneten
gezeichnet
doppelfunktion
leichten
karten
eingeklappt
geringer
bild@@
perfekte
kontrastfarbenes
lebendigkeit
griff
magne@@
lieblingsfarben
ppen@@
spielkonsolen
ket@@
hr
ablenkt
ruh@@
wärmeleitfähigkeit
aufhängung
haarspangen
fairen
armlehnenpaar
üre
lasiert
veloursbezug
gesellschaftskritik
kürzester
zugänglich
gün@@
alltags@@
ärmeln
hübsches
ran@@
gewebter
erer
strahl
récamiere
kopf
eiswür@@
kücheninsel
besteck@@
sin@@
farbunterschiede
spart
bremsmechanismus
ansluta
hochglanzlack
selb@@
ls
ni@@
milder
unterstützen
höchsttemperatur
utrusta
handschuhen
sichtfenster
schonendes
widerstandsfähiger
dach@@
rot
nach@@
al@@
handwer@@
etui
tigkeit
stellschrauben
knäckebrot
light
einfa@@
verbindung
möchtest
gedimmte
anbau@@
führen
könnte
korpus
hausgemachte
of
gemuster@@
tur@@
mbeeren
x
schaffen
west
feuchtigkeitsausgleichend
punktgenau
gardinenband
leise
tablet
kratzen
schaukeln
gerichte
tablett
hack@@
00
hü@@
pulverlackierter
ser@@
höchster
y
verzinkt
klebe@@
tauchen
pro@@
zehe
anliegender
hemden
10
festigkeit
sonne
chem
com@@
kan@@
3
strapazierfähig
gepäck@@
führt
frotteematerial
maßein@@
bewegt
schchen
cool
eigenen
stewardship
stad@@
klein
griffig
dank
unsere
bügeln.chem
glasrundung
erhöht
12
kapu@@
standardkleiderbügel
beschädigen
seife
fü@@
vermeidung
gilt
sch
sweatstoff
induktionskochfeld
haftet
effekt@@
überarbei@@
schwarzbraunen
normales
gern
nahtkanten
drehfunktion
unbehandel@@
individuell
stoff
nachwischen.mit
bel@@
v
spendet
aufbewahrungs@@
unnötig
beistelltisch
sommermöbel
puppenmöbel
bade@@
lebhafte
gepolsterten
reicht
entfernen
stabil@@
bettsofa
bilden
hig
nachwischen.untergestell
birke
abriebfester
rustikale
gewürze
jogger@@
dina@@
gi@@
220
finden
schwebend
leiste
vertragen
schlanker
ripp@@
gerade
rü@@
zeiten
babygehör
premi@@
geld
einkaufen
wollstoff
eindrucks
pa@@
umgeschlagen@@
wä@@
&apos@@
ei
oberflächenbehandelt
modisches
kten
zeichnungen
ausgerei@@
sanften
lüftungsösen
reinigen.in
er-@@
gut
karo@@
mantel
wohlige
installiert
schmie@@
gefunden
chinohosen
stofftiere
gradlin@@
großen
hem
chtigt
lumen
aufbewahrungskombination
zusatzplatte
erhöhten
drei@@
zung
gläsern
seifen@@
gebonde@@
gewebten
robust
stets
kü@@
schma@@
legt
²
rustikales
runde
jute
feminines
seh@@
rayon
babyfläschchen
rägten
sta@@
liebling
ger@@
tretei@@
untersetzer
wartet
energie@@
waagrecht
abgestepp@@
teres
verleihen
metall@@
individueller
unterbindet
mikrofasern
or@@
geeignet.an
christophe
abwechs@@
positionen
nutz@@
male
herausnehmbare
bodenfläche
produ@@
feinere
reise@@
energie
lieb@@
geweb@@
balkon
sse
elastische
schlafklima
lla@@
stopper
um@@
benutzt
hig@@
bewahrt
kordelzug
weichgummi
eigen@@
sprz
ausziehsperre
schals
mind
pfannen
rückenlehne
glänzen@@
situationen
ließen
gebra@@
zusammenklappen
verdunsten
jahren
han@@
klappt
teln
de@@
ersetzen
schaumstoff
leuch@@
modeaccessoire
handliche
größeres
polyester
ausgestellte
snack
inder@@
eindruck
stabile
spuren
schlaf
beigepackten
hlen@@
weißspektrum
üben
beinausschnitten
herz@@
muss
harten
beanspr@@
schweißgeruch
köpfe
aktu@@
sorgfältig
å@@
dien@@
farbecht
sparend
nden
engem
tter@@
erweitern
ungleichmäßige
liter
eckigen
stoß@@
pflanzen
doppelnaht
richtung
bücken
wegpacken
den
durchschlag
chinos
flauschige
hahn
estate
wächst
herausgenommen
abrie@@
jalousie
unerreichten
mag@@
eket
stahlwolle
feminine
möglich
tierhaare
handarbeit
passender
mikrofaserfüllung
rer
verstell@@
dana@@
schrägstellen
reiner
kreative
e
schmiegsamen
energieeffektive
widerstandsfähig
seifenschale
wintergärten
rechten
kreppstoff
kochfeldvarianten
auf
bew@@
natürliches
näher
alltag
polsters
lederähnlichen
saugnä@@
verstellbare
farbwirkung
wirds
charme
schrank@@
sorten
dichter
art
eckbettsofa
überzeu@@
geräuschlos
dliche
rutsch@@
;
würz@@
papierrolle
kerze
blumendesign
bürstverfahren
detail
strahlen
haut
sekunden
hi@@
extrafeiner
-mal
angesa@@
seit@@
erfinden
eien
als
ungesättigten
kompakte
stimmung
ausgewo@@
po
abnehmbare
eckelement
auflagebuntwäsche
licensed
zitrone
ölen
manuell
kol@@
pflanzen@@
untergebracht
fensterdekoration
legeren
kabelorganisation
alko@@
anheben
leichtere
decken
brem@@
ier@@
waa@@
ff@@
wasserabweisend
lätzchen
charakteristi@@
hochgeschoben
innentaschen
heruntergeklappt
saugfähigkeit
telefonnummer
kuchen
chemisch
waschmittelmenge
lig
ri@@
trocknen.einlaufen
fläche
holzoberfläche
ermöglicht
kehrt
for@@
regalboden
zahlreiche
beschichtung
freizeit-looks
kurbel
zimmerdecke
gateway
übersicht
fe@@
laufende
greifen
pflegeleichte
waschmaschinenfest
schichtverleimter
kartoffel
plane
abwischen.korpus
herren@@
ziel@@
normaltemperatur
blazer
antihaft@@
dimmbar
schafft
tischem
fleisch
ide@@
schlaf@@
rassel
ser
separate
messingfarben
defekt
urethan@@
kindergröße
schokola@@
attrakti@@
gemüse
montage
stimmungsbeleuchtung
anfan@@
längerem
nüsse
zwei
barem
dress@@
brokkol@@
hör@@
moderni@@
verstärkung
wir@@
trocknergeeignet.bügeln
nachwischen.gestell
4.8
bevorzugen
elegante
stabil
wo@@
grill@@
wasser
player
clevere
geschenktüten
fantasie
professional
professionelle
drinnen
zeitloser
töne
aufeinander@@
legespiel
leistungsstarken
buche
kurabo
klebeband
integriert
gerundet
schaukelstuhl
schwächen
samen
quadratische
weiches
ds
schuss
eine
will@@
jean
fettsäure
regelmäßiges
nachwischen.klapptisch
karosteppung
ablagen
glatt
vorhang
beleuchten
öff@@
bre@@
wechsel@@
tischplatte
ali@@
shirt
point
weit
weder
anlehnen
durstig
25
dunk@@
so
regals
aufhänger
vieles
farbpalette
gewe@@
verwahrung
bedingungen
wirft
entsprechend
anforderungen
druck
ieren
arm
trägern
formen
reflektiert
solo
cke
eingebau@@
staub
klappen
zwischenschicht
unregelmäßigem
umweltschonende
staubsaugen.mit
zum
schnapp@@
papier@@
chinostoff
bastel@@
warm
raumschmuck
den.nicht
kissen@@
kuggis
tür
sti@@
w.
schnee
gerü@@
anti@@
bekommt
gestell@@
schlafanzug
reliefar@@
spielen
ell
tour
hafer
wetter@@
halb@@
siphons
wandhalterungen
kurzärmeliger
reichlich
innenraum
unvergleich@@
gesamtwirkung
einsatz@@
workwear
spielerisch
heiße
tern
jahrelan@@
retroshorts
organisieren
sicheren
salatsoße
scheuermittel
melamin@@
ben@@
appetitlich
verstärkungsfäden
bohnen
ausgezogene
kuschelige
stabilisiert
bodenaufsatz
geschnittene
qual@@
winterzeit
aufträgt
biegen
dünnere
tischmit
strukturvarianten
gemacht
sen
gri@@
hindert
flü@@
untergestells
krawatte
hinter@@
go@@
vorteilhaft
augen@@
eindringen
rücklauf
bambu@@
kommode
wach@@
gter
verborgen
geschnitten@@
ringen
wear
bücher@@
fach
sicht@@
pfen
lichtdurchlässiges
ursprungsform
akku
schablone
familie
armausschnitten
dehnbarerer
mildem
verschluss
sohle
gefällt
sha@@
oberhalb
sparen
möbelstücks
tt
fun@@
re@@
löcher
sandalen
ffe@@
reißverschluss
geringe
eits
gürtelschlaufen
federnde
horizontal
platten
wurden
elements
lap@@
batteri@@
holz@@
nisse
kurzen
unbeschwer@@
fruchtfülle
insel
stielpfanne
dichtungen
x1rib
stoffschirm
schaukelstuhlgestell
halblange
seitenwänden
il@@
umgebogene
weitig
korrosionsrisiko
akzenten
bedeutet
ob@@
zerlegt
perle
eis
schlichten
dün@@
monster
haltige
teilweise
=
ladepads
wenden
geschickten
streus@@
versetzte
frühstück
verschiedene
tische
hochwertigem
täglichen
utt@@
ell@@
pf@@
taschenschirm
jacke
stuhlhöhe
einstellbare
spanplatte
basis
plätze
helle
usw
weins
verstellmöglichkeit
kron@@
leselicht
langlebigkeit
türfläche
ungsplat@@
zwickel
tischbein
bezugreinigung
knopfverschluss
jerseybezug
elegan@@
h
ß
belastet
engmasch@@
vergrößerungsspiegel
zehenbereich
ecksessel
sahne@@
zwischen@@
beschlägen
beer@@
unregelmäßiger
ergänzen
gesäumt
ler
durchparfümiert
skinny
hochelastischem
klare
jahre
schienen
ief@@
lifewear
gerie@@
rückenkissen
stiel@@
nylon
abfalltrennung
onelle
hut@@
abnehmbar
häus@@
nummerieren
trockenrissen
wählen
hän@@
gerei@@
träumen
ra@@
wollmischung
sandpapier
türen
auf@@
deckel
farbenfrohe
regale
innovati@@
gesamten
schönes
kunststoffknöpfe
selten@@
volu@@
er-sofa
formstabile
entspannt
ität
sowohl
zeitlose
ideale
rie@@
hol@@
blick
tv
feuchten
aro@@
peppen
kreuz
besonders
trennen
elt
uld
stet
kindes
mühelos
bezugwir
groß@@
schulter@@
jahreszeiten
zusammenarbeit
eben@@
spielsachen
r@@
kalender
füßen
schöner
herauszuziehen
taill@@
desodorier@@
wachstumsklima
gestützt
zuhängen
del
sof@@
daumenlöchern
zugband
stark
getränkten
karomuster
typ
bratpfannen
hygienisch
flexibilität
preiselbeer@@
es@@
höher
wasserdich@@
einander
wegstellen
beeren
polsterhandwäsche
lichterketten
geleitet
lässige
statt
run@@
getränke
kombination
verglichen
projekt
alles
kür@@
ie
vitahult
bilder
klaren
justierbar
nehmen
jogurt
geträn@@
eu@@
heißen
vanille
kleckern
mie@@
ssel
ausgeschaltet
eres
by
nu@@
sommerlichen
zuvor
mittelbalken
feuchtigkeitsbeständig
nten
wecker
2.@@
schönen
tüten
gekürzt
ha@@
sommer@@
gemüsearten
glasmit
gebackenen
ganzen
chrom@@
joseph
wandhalter@@
michel
mobiltelef@@
kran@@
weich
torte
verbraucht
pon@@
verdunkeln
tz
eindringt.das
angen@@
mikrometer
geräuschdämpfend
kli@@
rasch
geradem
lemaire
wetterfest
inlett
hoben
ke
bad
unterstützung
stul@@
entworfen
tail
motiven
las@@
schirm@@
gleichend
schlitz
ausreichenden
verwahren
lon@@
servierwagen
icht
bürst@@
recyclingbehälter
leggings
wert
jacquardwebart
bohrmaschine
ordneten
backof@@
feststellbar
körperform
reinigung
metallhalter
flu@@
scheiben
trendigen
zi@@
hitze@@
gleiche
angebrachte
eingesteck@@
kre@@
netzstoff
freu@@
sahnesoße
cre@@
findet
tastsinn
holzgriffe
pun@@
schließender
motorik
sh@@
beilage
alg@@
risiko
atmungsaktivität
perlen
stre@@
gusseisen
alkohol
süßen
pflegeleichten
untergrund
fein@@
tastaturen
sportlichen
schreib@@
rückwär@@
szene
rucksack
weiß
besorgungen
sanfte
fekt
erreichen
geknöpft
schi@@
tze
handwarmem
längst
gardinenschiene
gem
lichteinfall
scha@@
dichtgewebter
destroy@@
tte
ber@@
einblick
bohr@@
ür
lu@@
gestrei@@
feldern
hausputz
gehängt
verkühlung
seiten
pur
fuß@@
brennt
zahlreichen
std
gung
iertem
zusammenknöpfen
schliff
rahmt
herausnehmbaren
welche
pflanzlichen
bild
fin@@
handgelenke
kr@@
blusen
laden
gute
figurnahe
mol@@
steckt
frei
gediegenen
hobby@@
badezimmer
klettverschluss
edelstahl@@
erhi@@
künstliche
fersenbereich
letzten
zerkratzen
ster@@
dung
iel
kontrastfarben@@
lagenlooks
schlafen
schmalem
schrank
flaschen
holmen
