<unk>
<s>
</s>
dra@@
peeling
seeds
removed
lillabo
c.@@
stitchwork
key
genuine
ceramic
shake
bio
mid@@
stacking
warmest
useplace
reaching
ter-@@
orn
sleeve
mm@@
finely
sweet
looks
packs
sturdi@@
small
stitch
cal
exquisite
elegant
damp
devices
micke
foil
materials
bredskär
face
siblings
truly
en
h
fastening
condi@@
sma@@
swedish
robot
wood
inside
wider
tally
hearing
pair
shelving
public
7
hardware
pointelle
breathable
crew
hand
positioning
parts
amazingly
ling@@
conceal
waist
cushiondo
extreme
ers
mismatches
whisk@@
gowns
sea@@
drawers
e@@
dry
playful
moisture
planet
happy
mobility
-
situations
tten
coveriron
stand
snow
flexibility
makeup
domsjö
ph@@
asc
bake
colored
pears
moved
tension
character
dimmer
photos
contin@@
cropped
practicality
dried
magnet
vents
repellant
wooden
rep@@
signals
suit
out.@@
e26
kni@@
napkins
mattre@@
repeated
blan@@
dry.do
nutri@@
armrest
craftsman
shatter-resistant
calen@@
vel
adap@@
foot
natural
pots
sty
s@@
withstands
cloth.wardrobe
unrestricted
fri@@
es
five
forearms
sticking
finish
armchair
preventing
silently
technique
products
soiled
stretchable
therefore
sph@@
brown
angled
ur@@
mea@@
getting
3-seat
simple
eable
ta
value
spectrum
måla
give
close
necklaces
bamboo
boxer
charger
suitable
se
splatter
crouching
waterproof
decking
exten@@
summery
laminated
industries
ti@@
loosen
before
neutralizing
removable
make
bacillus
refrigerator
tanned
trap
extremely
stu@@
bath@@
online
plate
wake
lan@@
print
applies
passport
ely
specially
on
lots
dim
shawls
grate
basi@@
actually
stuff
bucket
mesh
party
detergent
worn
chargers
one
textured
basketwipe
microfiber
rugs
temperature
contains
5
dress
bag@@
lack
motifs
nyc
fill
springy
hint
rub
take
tiny
rattle
ets
mixed
enhanced
ä@@
mp
intervals
smoother
protein
rooms
holiday
grinding
drop
luxury
chair
minimal
safe
grundtal
foods
stained
other
mounted
travel
tee
gift
86
glass
salmon
w@@
trichloroethylene.cushiondo
hurt
fixa
unique
ral
hard@@
skirts
blackberries
gli@@
contemporary
suc@@
rai@@
home
ally
meets
side@@
simpli@@
yarns
.line
co
alber@@
wasted
sideboard
winter
around
window-@@
replaceable
impact
lac@@
rust
peeled
shrinking
italian
minds
ihärdig
lenses
disassemble
mint
str@@
uv
de@@
dee@@
ll@@
jeans
everywhere
jars
defective
homework
rs
redesigned
friendly
140
placing
timer
multigrain
themselves
%
linen
tumble
varying
ledge
lish
lin@@
ke@@
display
direct
push
yellow
preheat
bearing
silicone
yacht
board
oil
cartridge
po@@
solutions
ea@@
nearby
goods
lot
shifts
are
on@@
precise
washing
tomorrow
charging
cooktop
rare
content
sunny
dimming
incredibly
ssed
soa@@
eason
potted
vase
ss
jas@@
dampens
tra@@
framing
dig
ting
chaise
mobile
prin@@
women
pfoa
fied
newspapers
ster
hiking
outlet
buffalo
minute
ordination
cleaner.wipe
clean.cover
9@@
60
solu@@
usb
spicy
slit
cro@@
5-seat
holes
cut
gear
unsaturated
visual
diaper
measure@@
living
stabili@@
going
chenille
unparalleled
globe
lam@@
de
rechargers
oo@@
skin
cutting
blankets
sheltered
tucks
practices
ribbed
cell
beauty
durable-press
opti@@
shutting
burden
spark@@
pie
potpourri
resistance
bri@@
life
dom@@
percale
soo@@
lamp
stimu@@
noise
listening
chu@@
deci@@
thicker
lay
install
thins
skilled
bring
pictures
alternative
ch@@
gri@@
edges
150
regular
dressing
bristles
tap
surroun@@
d
cloud@@
.
free
ey
stay
cold
separately
covers
14
napkin
wide
charged
releases
different
cars
giving
plated
switch
m@@
ching
present
out.sectional
stabilized
depending
speeds
pairs
ex
relaxed
sports
lounges
burning
sole
right
sation
mi@@
cing
wicks
sa@@
cheese
dough
tively
tivate
er@@
hallways
portions
darkening
mushrooms
letter
skipper
port
cl@@
ssing
using
stacked
son@@
ne@@
matching
press
project
gement
placement
connectors
e1@@
t
les
via
⅞
expand
spice
carefree
reinforced
showing
cri@@
clear
na@@
bergamot
pack
cut@@
chairwipe
spots
option
vest
stripes
n@@
ty@@
stitching
inserting
resource
style
waterproofing
setting
cm
spotlights
screws
ability
repea@@
dresses
chest
tou@@
showcase
cotton
car
tional
ce@@
conc@@
decide
trim
work@@
coun@@
tables
brace
layer
fade
suspen@@
dly
ion
depths
stool
vin@@
ual
pants
outfit
ko@@
them@@
summer
frame
4-seat
indoors
hoodie
dol@@
factor
shorts
pouch
uti@@
practi@@
produce
bestå
insulation
seam
development
trunk
wait
gan@@
kitchens
al
separately.do
17
ticking
moisturized
microwave
sure
iron
garment
tosterö
styles
dge
uring
silent
weft
balan@@
trestle
placed
toddlers
bly
colder
neces@@
hiding
likely
narrows
walk
electric
9
after@@
tulle
soles
bility
yarn
deeper
bed@@
tablecloth
000
spills
swee@@
partitioning
oven
meats
groove
person@@
entirely
necessary
acces@@
1x1rib
½
pocketable
folding
way
ones
panels
rings
away
year
chilled
&apos;
standard
level
hitting
finger
wed
gho@@
ky
they
brackets
mixture
green@@
defrost
activity
ever
wet.shrinkage
vintage
against
drawstring
boholmen
reac@@
help
flowers
show
feature
runs
slept
molybdenum
team
meat
blowing
biscuits
mil@@
systems
basket
turtleneck
paints
tent
clicks
glare
skateboard
lanter@@
forests
cushioned
op@@
ws
ckers
sparkly
ve@@
actly
pajamas
www.utz.org
laundry
charm
softness
pieces
thro@@
exciting
mbs
hea@@
choice
shoulders
denim
5@@
their
tone
adjust
cool@@
tub
music
decorate
garments
ries
figures
clean.framewipe
cooktops
staying
n-@@
dividers
falling
plank
30
tea
comforter
textilemachine
eyelet
chino
side.do
ses
plea@@
festive
lean
ta@@
neck@@
tly
b
suggested
table
teach
spoon
fa@@
balls
attachment
liquid
keep
caramel
cleaner.door
dri@@
polo
stem
lights
rela@@
professional
safely
spilling
bowls
drink
rich
moistur@@
cushioning
flat.do
roof
product
leak
res
stretchy
tries
cked
ly@@
direction
keeps
divider
curved
tes
320
texture
wind
sold
screw
dryer
perfect
outing
lamé
puzzle
walnut
toilet
strainer
shortened
intense
background
gloves
sw@@
gets
disturbing
carpet
whole
stackable
ance
grasp
confidence
at@@
feldspar
upper
letters
preserves
ant@@
variation
ground
troublesome
y@@
sl@@
hug
shrimp
djuparp
tor@@
gh
fitted
retains
control
juice
naturally
desktop
bes
fittings
down@@
multi-use
patio
school
gather
sheen
porcelain
knit
grid
¼
lounger
scratch
hints
4
incomparable
i
protects
skirtmachine
grinders
three
sized
ler
shade
piping
padding
pollen
let
sty@@
knob
based
pronounced
tive
run@@
oni@@
double
nea@@
absorbs
shut
xed
roomy
line
situ@@
settings
comes
tealight
ste@@
modern
bonnell
flared
onions
workout
empty
long
particleboard
docu@@
quilting
cocktails
6
pre@@
illumin@@
ze
freestanding
ments
nal
connected
lets
fined
extendable
ly-@@
body
trendy
child
bite
still
broken
while
sen@@
unit
access
piece
controllers
forest
jams
french
ter
there
lovely
side.dry
divide
coo@@
seeping
protec@@
pellets
respon@@
mustard
meter
seasons
fully
mattress
contoured
base
mis@@
increase
qu@@
else
unplug
serrated
requirements
shorter
button
men
sinks
spreading
mon
mon@@
experience
develop
example
closets
san@@
98
blo@@
topping
inspired
everyday
errands
stored
piles
distinct
accommodating
accessories
soap
stick
efficiently
prolon@@
secrets
480
anodized
warranty
open
2-@@
firmly
provided
ambiance
offer
fall
qui@@
handmade
effect
mixing
ho@@
et@@
jute
microfibers
el
oak
acid
memory
crunchy
directly
entra@@
back@@
pendant
tment
ready
boiled
pine
device
com
pour
zippers
designed
sses
floorhead
365
sweater
fine
tasks
3@@
neater
wedge
als
belt
magnets
pe
intermediate
wrap
ss@@
rays
eye@@
il@@
removes
foggy
accentu@@
protective
front
knots
doing
patch
16
resembles
hangers
dampers
butt@@
flatware
framewipe
ces
address
gar
aluminum
10@@
flying
strap
better
tradition
drawer
ceiling
platform
bles
pastry
developed
plastic@@
seconds
ess@@
industrial
blended
k@@
wash
active
mercerized
pee@@
aim
coordinated
tired
for
stylish
shrinkage
stamp
thickness
methods
certa@@
c.sleeper
iz@@
soaked
zip
grass
taped
move
hacksaw
coordin@@
openers
tones
baskets
vanadium
washers
roller
coagulans
building
mold
camisole
mb@@
constricting
she
lo@@
ch
incorporated
star
firmer
ny
floor
ed
detach
milk
age
cloth.framewipe
tray
20
global
crib
ripstop
well
illustrations
a
queen
tte@@
ligh@@
near
ine
jour@@
sustaining
vases
ups
compartment
effectively
ffe@@
scooped
authentic
m
candles
reflects
topwipe
memor@@
lad@@
medium.do
density
cloth.4
grund@@
cat
ev@@
breakfast
favorable
greater
home@@
red@@
poultry
lip
sto@@
2017
occasion
required
percent
cor@@
leave
svartsjön
wrists
n
tar
bread
buck@@
bench
mouth
learn
char@@
warmer
zes
rather
workstation
scratching
lively
sig@@
terrace
exclusive
mo@@
dishwasher-safe
maintain
camouflage
bomb
scent
stars
bunny
solution.protect
coverwipe
wool
closely
tank
marbled
losing
now
nutritional
ner
0@@
212
personality
ther@@
rhythmic
acks
hardwearing
urethane
quick-drying
band
drier
mount
scratches
led
belts
pot
can@@
airy
wine
rails
ac@@
sour
includes
lar
tures
thicknesses
mill
learning
stack
gloss
blemishes
o
c.iron
wallpapering
sits
oat
covervacuum
dinner
chrome
bikini
putting
softer
marmalade
cables
beacause
joint
above
24
balanced
alone
na
damage
helmet
nicely
moo@@
behave
complement
cooktop.@@
privacy
big
cloth.dishwasher-safe
23
shell@@
°
x@@
ankles
sweats
sibling
waterwater
ght
nt
several
mmer
ck@@
turns
helps
tips
optical
he
ajar
jose@@
gical
ga@@
support
ink
raspberry
um
snaps
h@@
billion
resilient
polyurethane
fastness
feedback
desig@@
candy
slight
yourself
enjoys
er
haring
ming
00
lined
cloth.door
acc@@
bunch
horizontally
treat
brain
omega
ironing
velour
lacquered
loop
fit
hinge
drilled
ate
headings
assembled
such
ffy
bevera@@
fresher
feeling
dill
jellies
s
parka
changed
high.dry
cloth.pull-out
tu@@
aromas
whether
bin@@
leaf
wo
absorption
crush@@
occasionally
cla@@
fleece
beans
arranged
paper
athletes
u
container
countertops
springs
eves
kit
evenly
vidga
cloth
vivid
fashionable
simultaneously
without
trivet
pillows
knobs
moving
15
walking
first
mini@@
down
floa@@
drying
features
dishwasher-safe.@@
play
slatted
sort
horseradish
fridge
sting
power
slicing
heather
appropriate
potato
main@@
tcher
é@@
hold
heighten
seats
tested
notes
clean.inner
cup
argan
est
sprou@@
controls
visible
create
smooth
this
mouse
chandelier
changes
spray
bulk
comforters
har@@
wherever
behandla
beats
snug
no
sensory
classic
gives
american
personalize
overnight
terms
serve
overheating
pockets
arms
dope
shrink
pleasant
glasses
f@@
handwoven
smoky
between
each
lukewarm
bleach
stop
efficient
milled
apply
resilience
pleats
ni@@
dessert
lid
v@@
additional
shoulder
instead
bigger
gg@@
x
striped
honeycomb
.@@
emits
bar
40
10
light
att@@
plinth
cen@@
solvent
due
slip
pens
middle
following
trichloroethylene.mattress
consumption
entire
wrink@@
eyelets
airism
frames
upholstery
touch
bu@@
thick
dai@@
bath
fairly
ou@@
bottle
holder
ents
automatically
motif
ball
ms
quietly
position
k
42
holds
times
fo@@
lly
seafood
gifts
rib@@
relax
shines
wheel
apart
sq
arran@@
specific
grated
bea@@
gro@@
waistband
put
techniques
corn@@
strain
mornings
distre@@
dust
gu10.400lmwipe
spacious
beautifully
pans
placementfor
sleeveless
gently
cabinet
groups
armholes
savory
stea@@
evol@@
effortlessly
an@@
deodorizing
kinds
repellence
bir@@
underframe
heading
matter
backside
facing
remove
be@@
lugg@@
ction
sweaty
friends
men@@
arranging
feet
ca
increased
play@@
run
f.freezer-safe.dishwasher-safe
te
tasteful
template
rod
motion
plenty
wirelessly
additives
contain
underlay
transports
post
⅓
mmy
p
exp@@
pper
sitting
months
midi
off
segments
two
cande@@
furnish
stic
ings
throws
blue
knocks
mid
thing
hot
i@@
purpose
shar@@
customer
than
chic
classics
delicious
penetration.protect
shaped
babies
packed
numbers
rose@@
regi@@
scraping
cords
coarse
shing
soon
tured
seaso@@
embroidery
cud@@
cuddle
patterns
design
ear@@
leng@@
cov@@
pulsating
strips
collection
premium
seams
saving
cozy
rug
patterned
never
writing
ding
reinforcement
wrapped
north@@
sticks
familiar
ridges
proof
fla@@
rec@@
dé@@
cooked
bust
butter
locked
bit
that
ander
ned
protruding
diffuser
pop
allow
ºf
components
cated
days
cured
undershirt
zink
overhang
ingatorp
emptied
fy
trofast
c@@
transporting
versa@@
leg@@
maintains
as@@
refill
lists
tr@@
tablewipe
curves
raise
wires
laminate
sneakers
glazing
mother
layering
want
these
gray
lighter
64º
switching
improved
ener@@
fintorp
am
flattering
offers
rocking
coverhand
glued
cabinets
‒
mess
reflec@@
2
drips
retrac@@
area
orchids
ying
leatherfor
meals
circulation
frying
tilt
chan@@
energy
rota@@
dishwasher
clean
travel@@
flavor
then
ce
detailed
utz@@
sweden
crispbread
coverto
adults
ki@@
eraser
its
uri@@
plants
ts
lasts
blocking
14@@
cloth.mesh
protected
ment
suited
sula@@
drape
pushing
suits
coloring
painted
accent
shaper
dou@@
wall@@
select
duster
fli@@
process
identical
forms
viscose
outdoor
item
linens
assemble
tness
bedlinens
32
produced
slots
reduced
dots
highest
seen
lithium
designs
wheels
sten
tags
spill
more
gasket
herbs
trans@@
85
adjustable
pea@@
radiation
saucepan
bead
salt
pping
round
careful
flower
pre-washed
pen
widths
non-abrasive
bright
planning
similar
so@@
apple
anna
mirrors
strea@@
59º
ure
ry
inners
mp@@
sub@@
accents
dropped
preference
supply
ex@@
flannel
ption
view
humid
reci@@
freezing
counting
groceries
recycled
salad
throughout
toothbrush
mar@@
coat
ent
bag
rustic
man@@
darts
recyclable
roll
fantasy
hips
exceptional
app@@
cloth.protect
ves
kids
pin
because
dist@@
pl@@
crafted
anti
ed@@
ment@@
midsection
maintaining
freezer
dyeing
utensi@@
nutmeg
strong
hanging
ingredients
pering
wiping
break
volume
roles
sn@@
lineup
chambray
gains
nils
cy
ba@@
brightens
magnifying
si@@
:
rotating
bridal
scents
tumbler
adds
stimulate
logical
streamlined
turn
center
shelves
magazine
essential
rea@@
shiny
beg@@
weaving
traffic
part
dinners
self-deodorizing
lightweight
bookcase
molds
generous
flies
old
ning
excess
gla@@
clean@@
8@@
da@@
ginger
crank
glowing
washable
oiled
grow
preservatives
solution
frequently
environmentally
together
knee
pla@@
shes
decorations
easily
cher
something
mance
coverdry
customize
&amp;
bur@@
fresh
doll
smaller
flavored
gaps
ies
tomato
flavors
secon@@
färgrik
basquiat
jo@@
sleeping
orts
culture
furniture
regains
low-@@
machine
cloths
6.@@
dy@@
shi@@
freeing
underarms
trest@@
framevacuum
oversized
smoked
bottom
look
pped
slipping
easy
ering
elephant
basics
wells
guests
mirror
sandalwood
flame
wear
except
fashion
ra
äs
human
moment
energizing
multiple
opens
clay
machine-washable
map
rating
labels
money
warming
don
sea
custo@@
lev@@
cent
step
mark
tered
decoratively
bpa
sorting
sha@@
tend
save
hinges
marks
bro@@
hejaren
seasonal
could
scre@@
cinnamon
pp@@
everything
meticulo@@
retaining
supple
clara
gai@@
inte@@
mi
microwave-@@
wraps
can
cream
dr@@
foot@@
having
peaches
tches
rubberized
refreshing
wardrobes
sophisticated
2.4
used
packaging
sh
inf@@
elec@@
tan@@
mor@@
el@@
bedlinen
veneered
underside
handy
wagon
hide
sv@@
collar
straining
cultivation
bent
bleach.do
quarter
impressions
ways
pumps
visi@@
to@@
unload
lace
follows
heavily
ne
fasten
lates
pan
toes
ns
ten@@
f
creative
cushions
dently
arts
started
emi@@
car@@
ladder
greeting
melamine
enough
approximately
back
tableware
most
cul@@
twist
e12.2@@
pencils
distributes
ears
5th
plant
variety
leather
coordination
cast
geometric
ff
ttle
satin
cups
distur@@
cha@@
strip
peek
shed
wipes
weave
dia
hair
pad@@
popular
chairs
conveniently
mer@@
ash
diffused
rugged
vä@@
allowing
freely
grown
indoor
ker
www
hems
+
hemming
mugs
braided
jersey
detailing
wages
compactly
immer@@
from
dividing
ward
attached
occa@@
amounts
anyone
sso@@
catch
casual
pepper@@
hedgehog
appro@@
tched
bird
flexible
son
absorbing
moist
then.handwash
brake
washer
possible
changing
ught
formal
water
wet
crafts
throw
mites
uncluttered
tting
farmed
penetrating
ori@@
breathe
taking
wal@@
ant
attaching
toasted
rate
adju@@
fiberboard
high.do
fabric
on-@@
until
ima@@
vegetable
hu@@
ö
tights
eled
risk
her@@
moni@@
layers
cils
fast
equipped
diameter
another
organizer
since
vertically
chil@@
coverage
brighteners
induction
sectional
armrests
rin@@
sharpen@@
market
discharge
produc@@
neatly
ot
high-@@
cuffs
bending
micron
imagine
wearing
balance
sunglasses
pulling
cross
deli@@
ela@@
reduces
details
grilling
moderate
cuff
come
solar
places
keys
stainless
units
mounts
wholemeal
certain
allergic
breathability
is
reheating
lays
mashed
enamel@@
wants
cracking
grace
pull
collections
ly
clip
sewing
chocolate
neckline
chiffon
fear
equiptment
fingerprint
microns
non
cloves
ottoman
dual
ramie
thread
twill
serene
clearly
stability
toddle
instance
disney
zing
fee@@
briefcase
scarves
arm@@
w
which
relieves
day@@
heads
telephone
incredible
care
collecting
lar@@
struction
aroma
stable
year-round
serving
brings
with
even
lers
158
pads
densely
comp@@
finished
skirt
normally
amazing
mode@@
just
velo@@
unlike
sateen
durability
chun@@
crease
underlying
vaccuming
spaces
sur@@
kes
patina
puckering
airtight
duck
craftsperson
c.storage
within
steady
thrive
table@@
holi@@
sts
te@@
quest
sloping
bran@@
coziness
beginning
either
be
mat
fasteners
durable
secretary
shortly
gaze
high
openings
blend
opera@@
thou@@
stretch
bra
alcohol
dip
gu@@
pressed
96
technology
seal
many
pointing
ving
am@@
inter@@
particularly
ver@@
environment
sticker
presents
smoothly
pu@@
bb@@
canopy
pole
org
pliers
occurs
head@@
length
dog
dolls
stops
organizers
sti@@
temp@@
clean.wipe
super@@
tt
load
riktig
installation
develops
els
flagship
timesaver
wicking
vi@@
sweatshirt
effortless
transform
encourages
bill
practical
in@@
ppy
re@@
.tumble
accessory
fiber
flat
split
chain
retract
illuminating
plaid
reversible
ters
f.freezer-safe.@@
suitcase
weight
floral
are@@
connecting
drawing
salads
protect
directions
tab@@
type
scoop
kind
innerwear
low@@
servings
happens
sensitive
uneven
inseam
buckle
win@@
botanical
ai@@
athle@@
ust
graduated
reduce
slice
poly@@
have
tape
eal
ar@@
known
65
me
walls
b@@
sleeper
distributed
luxurious
crust
outstanding
trip
bulky
wrinkle
compensate
hiphugger
wipe
refined
luster
random
calves
ty
movement
improving
try
freshly
poäng
method
color
ged
options
slimming
accurate
cycle
dless
cardigan
profile
quartz
ling
needs
renewable
avoid
seating
sustainable
aci@@
journey
connection
hours
completed
assembly
cycle.to
radiant
characters
interlining
packaged
creamy
pri@@
panel
berries
fini@@
dirty
eat
celebra@@
ere
taste
where
not
material
gur@@
responsibly
distance
slip@@
flash
,
drill
blink
pushed
ray
⅝
cycle.do
binding
island
odors
neat
unprotected
grains
tex@@
closing
parti@@
desserts
mick@@
weathered
-@@
ban@@
very
sealing
iron.do
prolongs
tter
takes
unused
bags
best
drinks
sheds
lint
homes
torque
mail
basic
sandals
some
zipper
brass
fingers
textiles
wavy
closes
towel
bracket
loo@@
over
binders
sound
immediately
ken
plug
new
tening
protection
done
impro@@
craft@@
range
plates
areas
available
delicate
remain
rustproof
ve
daybed
depen@@
lifelike
green
19
dries
cacao
sauce
head
deciding
to
inviting
jogger
processing
fai@@
watt
lattjo
remover
accompanying
chocolates
means
years
plain
cloth.@@
accommodate
dampen
bra@@
book
protectordo
beer
approved
sand
desired
next
playwear
toy
pasta
tip
closure
leftovers
aims
95
them
ther
-neck
prepared
c
wax
enjoy
ded
eas@@
7@@
cel@@
tilted
treated
sc@@
bun@@
trichloroethylene
outside
©
effective
trouser
lefto@@
fair
effects
do
bonded
solid
brightening
girls
potty
windows
toddler
replacing
per@@
compact
thirst
net
inserts
masculine
after
backrest
tri@@
hose
freezer-safe
infuser
des
esses
ja@@
regularly
underneath
e12.200lm
irregularities
ble
ft
slub
athleisure
coated
fold
section
package
hel@@
wash@@
ribbons
proportion
chests
ons
col@@
kid
chargerunplug
28
corrosion
balcony
ough
equipment
stitched
rty
cushionmachine
pull@@
harmless
full
.wipe
unlined
pyssla
le
ab@@
the@@
metal@@
discolor
ja
dimensions
flow
swea@@
moderately
ribb@@
layered
change
rain
leaning
leaves
wings
cargo
terry
drain
thanks
particu@@
bookends
rt
spor@@
mu@@
skills
gar@@
society
reflect
flickering
edging
steps
meet
snowfall
mulled
bow
under@@
rac@@
instructions
sounds
being
games
ass@@
legged
traces
lize
adjusted
mah
city
others
folds
optimal
berry
about
organizing
3.@@
ride
wh@@
gir@@
colors
activities
hanger
providing
carrying
ter@@
out.armrest
lamps
190
wer
shortbread
quite
cornice
la@@
provides
undone
door
me@@
matt
blown
agreeable
spacing
heart
volu@@
knitted
damper
pax
fire
flat@@
th@@
len@@
clips
roads
messages
maximum
crispy
tar@@
need
real
squeezed
lie
af@@
spruce
tear
conto@@
backing
snap
maybe
da
reflectors
outs
dressy
corner
pressing
wa@@
oxford
firm
hygienic
bel@@
ei@@
300
heel
crisp
plu@@
regula@@
shoe
smartphone
get
sh@@
dirt
weather
and
covr
portion
trays
into
stools
fixture
zippered
newborn
baghand
combines
cart
6@@
turned
draws
wall
dis@@
boat
oz
skurar
crossover
re
remote
bed
showcases
cleaning
own
jea@@
beautiful
3-pair
window-cleaner.wipe
stir
slides
bottles
handcrafted
belongings
picnic
corn
ess
station
traditional
incorporates
treats
outerwear
forget
works
functional
accentuated
pillow
version
fennel
book@@
overloading
holidays
delica@@
tea@@
follow
cheeses
felt
br@@
ultraviolet
00@@
inventing
conducting
regulate
upda@@
shades
meas@@
vision
cran@@
temperatureminimum
balconies
acci@@
hooded
gateleg
furniturestore
stubborn
projects
rotate
sec@@
suppleness
nougat
act
blocks
included
vy
beech
tie
fix@@
signature
slick
case
ca@@
ideal
dense
toe
able
fam@@
kor@@
vegetari@@
henriksdal
whi@@
sions
leds
tool
ad
sliced
tmachine
low
curtain
simply
fec@@
prepare
ssion
shelter
fond
tucked
people
regulary
straight
min@@
rhubarb
ation
dy
cele@@
!
15@@
heartbeat
perfor@@
dispenser
lining
coverclean
pul@@
protector
algot
expression
separated
undo
metal
separa@@
thoroughly
hjärta
tching
dry.iron
seamless
chunky
once
ele@@
dal
gi@@
welcoming
label
hall@@
19@@
latex
dish
der@@
upside
denser
supplies
worries
tomatoes
blanket
oily
nyboda
too
box
allows
rands
underbed
vie@@
far
ponte
won
optional
add
ro@@
stuva
é
whichever
ges
preci@@
lingonberries
stationary
twice
zed
house
playing
storage
onto
pe@@
mottled
further
ear
sugar
sofa
vibrant
substantial
during
knife
file
lled
air
starts
film
glides
hobby
recommend
grain
por@@
motor
expos@@
deca@@
158ºf
indentations
construction
stimulates
standards
object
anywhere
pow@@
really
ge@@
runners
dvds
ing
sheer
d@@
timeless
versatile
cakes
l
preserve
buttons
spreads
d-@@
26
measure
inspiring
faster
hiphu@@
cashmere
wea@@
gussets
preferred
l@@
expands
utz
extensive
mini
bleach.tumble
rail@@
distressed
ansluta
sit
20@@
sprout
increases
baked
abrasion
temporary
z@@
lines
raised
le@@
accommodates
exterior
waffles
railway
ton@@
accented
hemmed
deodorization
fruit
cooktop.oven-safe
(
clothing
ef@@
insert
ually
tidy
highly
tab
seagrass
ens
ensures
il
heating
crane
sal@@
muffins
4@@
shel@@
luggage
wood@@
rebound
ping
g
crown
possibilities
renew
caps
.dry
lyocell
coverprotect
gra@@
han@@
discs
stearin
us
wild
equally
cake
adjus@@
potting
advent
street
count
cheek
indi@@
fluffy
catches
soil
chandeli@@
breathes
sponge
scented
reverse
pastries
tighten
marathon
business
ankle
extension
maternity
source
truck
visually
off@@
plasticwipe
cord
thers
slips
pes
runner
behind
casts
conducts
burned
stard
those
out.back
parall@@
threads
conditions
system
sleeker
tanning
accu@@
positions
li
solution.wipe
strikes
fyndig
gs
liquids
we
teri@@
ren@@
embracing
pattern
mol@@
again
workwear
plays
prevents
coversteam
all
over@@
er-@@
kivik
super
vels
lambs
pulled
laptops
work
your
cordless
secret
daily
baking
calcium
coverlight
sun
ated
odor
chal@@
adding
ob@@
stemmed
who
woven
created
imp@@
ripe
ultra
harsh
ge
moves
bs
functionality
posture
also
much
will
crepe
replica
suction
go
quicker
interior
anti-odor
canvas
anything
bend
coating
stationery
beverages
adapt
handbag
ves@@
tabs
focused
barely
wallet
disposable
unk
top@@
featuring
placket
vari@@
dreams
13
silhouette
mischief
ks
ck
an
combination
yogurt
favorite
uni@@
beam
original
toggle
keepsakes
closer
man
sensor
rattan
oe@@
organize
sections
perfectly
et
function
large
finer
travelling
cycle.machine
plastic
pallra
lockable
tch
focus
box@@
live
app
tai@@
form
laptop
cleaner
narrow
miniature
transport
vent
microwave-safe.@@
match
extra
ach
shelf
smart
opener
dar@@
paint
brought
retention
absorb
tapered
minimum
neck
picture
pen@@
equal
card
combed
den@@
source.location
king
counterweight
din@@
rear
tations
seasoning
ice
122
anklet
some@@
bo
ll
lent
glasswipe
stores
tools
surprising
dome
tiles
penetration
o@@
shapes
result
met
draped
collages
enjoying
wheat
resistant
burn
dishwashing
/
fisher@@
cloth.wipe
sporty
fixed
pad
tin@@
location
been
skinniest
steel
amount
ö@@
tailor@@
tightly
ted
built
multi@@
or
convert
dimensional
ness
india
ergonomic
bottoms
coverall
jacket
silicon
abrasive
fabri@@
charac@@
pers
exotic
relieve
production
magazines
doors
ship
rly
battery
slanted
larger
looking
various
yar@@
interesting
ties
softly
woodthe
addition
member
vacation
superb
freedom
p@@
dinnerware
drilling
saves
liners
sock@@
itself
sofas
coordinates
heattech
lls
tal
feel
less
im@@
supports
racks
visiting
despite
higher
expresses
across
speci@@
today
sliding
lounge
sleep
withers
player
corners
out@@
performance
exercise
vackert
dishwasher-safe.leave
lunch
mless
ple
wad@@
adjusting
scrub
ärta
left
leaving
opening
sided
subtle
raw
vary
briefs
few
join@@
calculator
side
vers
consistent
unpeeled
ultimate
seg@@
inch
tree
padded
decoration
core
shower
ches
needed
seat
crisp@@
exact
store
lit
release
towels
tage
comfortably
may
tamper
jackets
minutes
dvd
trends
mild
organic
great
st@@
u@@
workers
quickly
children
wi@@
grip
spla@@
substances
lea@@
remains
sterilize
medium@@
washed
unmatched
scouring
presenting
flowing
chalk
story
cycle@@
tro@@
hugs
ging
headed
atmosphere
thin
prevent
short
hugging
sturdy
grooves
watercolor
artestar
tell
ght@@
mate
rolling
cook
staining
securely
sparingly
iness
homemade
string
sleeves
seeing
&quot;
mize
concentrated
distribute
blen@@
tted
gic
daylight
important
enjoyed
processed
softeners
lumbar
beads
star@@
management
brushing
ines
color@@
washcloths
adventure
racerback
open-collar
bib
goes
legholes
.water
sharp
crumble
quart
spinning
padmachine
east
horizon@@
tastes
colorful
ining
mmed
standing
veneer
heat
nighttime
footrest
illustra@@
acquire
pan@@
®
stan@@
soapy
etc
hin@@
silky
integrated
our
every
alarm
hairs
detergent.professional
holders
longer
outer
lies
lids
media
fitting
results
feels
screwdri@@
gathered
utensils
leaks
heartwood
urge
completely
thighs
grained
ils
portable
sli@@
th
uses
sin@@
snacking
falls
sight
prefer
bagganäs
sewn
calming
staple
candle@@
ls
fruity
artists
angle
ars
collect
utrusta
only
preparing
pure
beneath
al@@
write
candlelight
shape
tw@@
coast
pilling
bodysuit
par@@
mix
lip@@
sustain@@
costs
bulbs
has
papers
hur@@
acquires
nor@@
gu10.400lm@@
comfort
of
attach
irregular
carbonated
ating
sk
injury
frost
foundation
west
sb@@
growth
theme
rubber
invisible
tablet
toasty
g@@
knives
spot
wn
flatter
blueberries
ser@@
loungewear
sheeting
half
y
sandwich
nut
liable
pro@@
containers
low.do
powder
blind
repla@@
whipped
charge
dry.shrinkage
com@@
darken
3
pillowdo
gx5@@
cu@@
general
remo@@
cocoa
semi
per
unisex
merino
surfaces
00lm@@
cool
expecting
bathroom
connec@@
secure
red
connect
brochure
desk
waistline
repellent
70
toymachine
concentration
touches
code
12
reflective
lighting
nee@@
tions
pale
lead
sat
pillowcases
necessary@@
handers
fibers
reach
limited
game
clou@@
expan@@
afterwards
blacking
wardrobe
untreated
enhances
blade
distinctive
indigo
warrranty
pretty
weights
steam
molded
detached
asleep
clamp
v
often
baby
necessary.wipe
sun@@
mel@@
ders
retained
not.microwave-safe.freezer-safe.dishwasher-safe.leave
8
incandescent
foldable
uplight
train
uniform
traveling
mable
stands
edge
clean.vacuum
buy
fats
shopping
sauces
duvet
ci@@
love
var@@
dining
normal
cleaner.pull-out
cooktop.suitable
fun
extended
uld
any
poncho
feathers
unlit
families
continues
embroidered
chair@@
wards
shampoo
training
saffron
100@@
pa@@
cre@@
sandwi@@
toxic
maximize
tch@@
yours
stand@@
chopping
problem
teeth
field
flooring
backs
it
temperatures
michel
tical
ts@@
fresh@@
storing
reading
slightly
when
track
protecting
shoes
drinking
convenient
relief
shell-look
fried
spices
leg
hem
sco@@
ul@@
faced
dishes
monsters
ld
in
matches
geable
cation
purchase
recipe
fronts
cas@@
tins
both
fly
contours
deni@@
beating
quick
accompan@@
cloth.shelf
woo@@
clean.stretch
cable
through
especially
vacuum
imitating
ood
personalized
ger
strawberry
sweat@@
soup
ture
meal
sta@@
428
memorabilia
raglan
carry
out.sofa
tre@@
thinking
ofantligt
prolong
hand@@
documents
22
occur
combining
or@@
last
sisal
christophe
era
sprin@@
cooking
combined
dry@@
omlopp
ap@@
º
undera@@
trains
sil@@
screwdriver
heels
least
electrical
waisted
farming
dark
airflow
dye
diapers
cer
ring
adult
garden
extend
hard
busy
terrycloth
mber
coll@@
cs
added
valet
hon@@
gula@@
velvet
accessor@@
eagerness
recessed
windproof
sprz
endure
roo@@
mind
handle
rounded
rye
c.do
salted
curtains
coa@@
pull-out
ten
harm
pile
why
watering
narrower
start
excellent
no@@
artwork
contrasts
ghts
gx53
covered
shaping
wearable
polyester
max
snack
including
liningmachine
looser
adapted
tion
lower
ru@@
headboard
hole
fauc@@
cute
comple@@
dream
ever@@
rice
vo@@
stains
featured
ka
upf
di@@
cli@@
carafe
trichloroethylene.@@
clea@@
dyed
oa@@
å@@
nature
toot
sources
however
ths
downwards
high.iron
transforms
highlight
sanded
decorative
insula@@
tealights
uprights
filled
the
properties
pillowcasemachine
nap
transparent
aside
meatballs
gentle
collage
dressings
stretches
mechanism
chinos
chai@@
fragrance
.4@@
gardening
cookie
multi
estate
ven@@
mes
cooks
mag@@
leathercare
feminine
en-@@
call
drawn
00lm
loaded
supima
nightstand
nel
eyesight
ventilation
use
metalwipe
fuel
54º
-washable
breaking
?
loads
plus
countertop
build
night
mood
nice
teenager
dimensioned
running
casters
cloth.clothes
batteries
trous@@
parking
trichloroethylene.storage
fancy
directional
ease
distinguish
switches
twi@@
maintenance
decrease
out
books
window
asymmetrical
outgrow
screen
art
closed
monitor
loveseat
were
climates
;
stirring
fill@@
think
things
minimi@@
detail
brushes
contra@@
turning
rinsing
hy@@
fra@@
anti-microbial
beds
cushion
ush
growing
bustline
loose
icing
t@@
uniqlo
types
stickers
adhesive
darker
licensed
response
agave
ster@@
selec@@
outwards
launching
wintertime
viewing
coffee
row
dot
dogs
jacquard
candle
needed.always
crawl
impression
concealed
ants
driving
chairmachine
ff@@
cra@@
lingonberry
outdoors
at
rent
teboard
thumbholes
cking
name
boxes
lig
ri@@
cling
apples
four
sible
darkens
sauteuse
curve
sizes
for@@
cards
ausonia
wl
atmospheric
kills
watch
cases
rack
microbial
¾
season
always
cap@@
gateway
patches
even@@
fe@@
eting
warmth
tin
does
pepper
late
straps
clean.@@
zz@@
coverdo
renowned
phone
below
resists
dete@@
stretch@@
sca@@
inner
browns
spread
creativity
gracefully
lift
climate
gingham
ikea
zones
busunge
21
shirred
dry.vacuum
adjustment
separate
trend
eating
containing
van@@
air@@
spandex
aromatic
&apos;t
preserving
switched
demands
paired
woodwipe
brigh@@
spec@@
becomes
bun
point
sk@@
open@@
sustainably
jam
fika
gre@@
squee@@
regularly.professional
sunlight
mir@@
jar
35
inspi@@
medium
4.8
valve
quilted
sleeps
sleek
ec@@
inser@@
wo@@
new@@
100
wellington
alike
little
winters
trådfri
keyboards
trellis
iron.dry
exceptionally
blouse
regain
friend
spar@@
combat
working
christmas
lightly
v-neck
applying
slats
bal@@
collects
ue
hood
waffle
cleaner.clothes
absorbent
ved
fil@@
li@@
ds
hangs
iron.line
soci@@
symbols
mattresses
ecp
wrinkling
knees
traditionally
disa@@
interv@@
ski@@
restricted
sweetness
tops
remember
you
fs
.iron
electronic
nothing
coin
drafts
mug
personal
ali@@
shirt
individual
animal
saucer
der
hall
25
hung
cedar
hip
so
trinkets
kept
cr@@
bar@@
shine
filters
permanent
circulate
cap
safety
drainer
wash.machine
arm
tened
painting
trailer
ön
nuts
va
drive
fits
bike
thinner
shallow
according
check
jewel
a@@
lemon
conver@@
j
should
warm
la
j@@
kuggis
gas
rib
soft
expec@@
compared
window@@
kurabo
dimmed
crates
vanilla
pillowcase
lowering
ply
hook
provide
utility
ell
inverted
ju@@
harder
capacity
remaining
comforting
stain
bi
require
slim
sp@@
good
overall
cloth.extendable
umbrella
rayon
quality
cookware
wireless
mer
whenever
biscuit
.do
backpack
pocket
avenue
useful
nets
hands
under
activated
imagination
slender
stor@@
messy
lying
ben@@
like
upward
mean
scaring
bi@@
slide
place
sportswear
friction
vegetables
crea@@
spun
pairing
82
inn@@
angles
spi@@
operated
47
reliable
bathrooms
variations
clean.back
phthalates
special
cru@@
clamps
contact
clean.line
objects
height
expansion
eket
size
sing
build-up
trimming
go@@
find
usly
dowel
advanced
lock
co@@
wrinkled
grips
invi@@
wadding
not@@
space
folded
tweed
emit
evaporate
sion
displaying
directed
mally
hang
would
shell
safer
centers
80
filling
pressure
tight
ard
gradient
attention
black
outfits
waste
ous
course
50
wiped
clean.dry
revolutionary
sol@@
ful
ordinary
bedroom
bulb
lantern
famnig
quencher
wire
scarf
warp
hidden
clothes
us@@
fad@@
acids
collared
synthetic
retain
click
lap@@
up@@
ribbon
depth
marinated
ery
craftspeople
hi@@
enameled
along
venti@@
coco@@
single
as
4.5
water@@
e
rou@@
loves
relaxing
contents
umbrellas
spout
powered
pur@@
gingerbread
c.dry
grinder
opened
stripe
komplement
chri@@
tempered
removing
clean.shrinkage
crackers
sleek-@@
museum
food
=
computer
leathervacuum
slipcover
wash.do
ribs
what
tru@@
listic
ensure
easier
set
egg
matte
tte
teflon
environmental
ber@@
resi@@
cover
foam
un@@
movements
compartments
top
fabrics
absorbency
basis
root
fatty
rail
sted
functionsonly
but
r
chemicals
width
ors
non-removable
releas@@
fish
main
realistic
upright
1@@
infor@@
rights
bedspread
4.6
individually
personally
sunburn
consume
comfortable
rise
consumes
hub
printed
stretchier
gh@@
unpleasant
pas@@
world
number
tt@@
ran@@
condensation
oranges
end
comfy
colander
pi@@
heavi@@
skinny
guide
items
structure
gging
appearance
collar@@
chi@@
time
generation
maker
lifewear
ates
replacement
socks
nylon
served
fat
dissolving
reminds
artificial
⅜
)
leek
jewelry
eets
sprink@@
creating
ra@@
pre
slowly
cardamom
fi@@
firmness
leisure
allen
recommended
innovations
include
shirts
sho@@
harmful
st
towards
organized
en@@
automa@@
detachable
hol@@
tv
toppings
landing
rest
0
swivel
su@@
hooks
phi@@
handwash
arrange
kallax
locking
requires
cks
up
vacuuming
spring
11
r@@
platinum
candlestick
bicycle
t-shirt
ir@@
suspension
treatment
e26.@@
withstand
ounces
textile@@
family
encoura@@
sof@@
pancakes
combine
past
ester
shir@@
ages
mounting
join
tur@@
potatoes
steak
es@@
oven-safe
gubbarp
attaches
rolls
crotch
recommended.dry
glow
struc@@
tic
grind
upwards
do@@
skims
squea@@
water.do
adhe@@
besides
18
eyes
sweat
ripened
yet
bla@@
drawings
combinations
sel@@
colla@@
du@@
how
coded
bedding
by
nu@@
updated
brush
-easy
con@@
surface
coordinate
spotlight
strings
flatter@@
deteriorate
sides
attractive
certified
cowhide
ha@@
grill
cur@@
racer
sheet
joseph
decorating
stays
outline
handles
scra@@
dable
pon@@
cushionhand
lasting
white
stre@@
clock
day
glassware
worry
lemaire
bin
converts
making
deep
ke
restful
usi@@
breasted
updates
tall
enhancing
fro@@
rasp@@
sity
fashioned
dampened
tter@@
⅛
already
legs
enclosed
lon@@
garlic
lli@@
pos@@
speed
calendar
room
constantly
heavy
leggings
carefully
magnetic
ancient
cket
taken
finials
textile
keeping
sense
draw
trichloroethylene.back
read
protectors
27
outlets
gers
flu@@
show@@
zi@@
kitchenware
insulating
lacquer
evo@@
yoga
shows
senses
smo@@
coming
brushed
2@@
slippers
snacks
was
functions
innovative
made
jean
levels
bul@@
surroundings
complete
signs
ham@@
ma@@
washing.do
overview
spot.professional
vertical
boil
period
minimizes
sor@@
if
eye
toys
self
he@@
ps
same
choose
solution.maintenance
kitchen
thes
fastener
floors
1
loops
tigh@@
id
makes
snuggle
humidity
glossy
gentler
desks
cookies
ins
arch
tee@@
everyone
lu@@
recycling
・
block
chill
covermachine
preferably
clo@@
se@@
sandpaper
ov@@
health
fruits
galvanized
rinse
bo@@
furnishings
guish
sets
tracks
regardless
swi@@
reduc@@
faucet
feather
tough
creates
fin@@
que
heights
cami
rims
elastic
york
gus@@
social
cooler
cds
square
role
see
office
origin
series
max@@
dry.@@
ver
ylen@@
doesn
bowl
stro@@
birch
laser
dity
shu@@
sink
riding
blackboard
submerge
assures
cycle.iron
