<unk>
<s>
</s>
gläser
durch
flecken
mini@@
aluminiumzwischenschicht
einfacher
spitzen@@
schrauben
reinigen.reinigung
aufzuhängen
funktion@@
col@@
sst
behandeln
möblieren
nachdem
mandelstückchen
gebogenen
lieb@@
durchsichtig
pflanzen
deckel@@
nahtdetails
version
hy@@
nie@@
trocknen
überhitzung
ladegeräte
farben@@
wechsel
folgen
fro@@
kühlem
zugelassen
intensität
stuhl
einbau
mitzunehmen
utensilien
erhellt
dimensionale
iger
rippen
gegebenheiten
fein
widerstandsfähiger
gasherd
bene
grifföffnung
warmem
skandinavi@@
reicht
inneren
zeichnungen
anwinkeln
putz@@
fe@@
ändert
dusch@@
bettkasten
berü@@
destroy@@
schwingen
nes
besten
gummi@@
gepolstertem
blau
hitze
leeren
schau@@
dar@@
wärmt
isolierung
kuschel@@
lauf
zehe
alleine
nachwischen.untergestell
wei@@
dinge
unifarbe
dezenter
mobi@@
vitrinen
die
sportarten
et@@
herunterfällt
hellbraunen
schultertasche
feinkörnigem
schaumstoff
weichem
gestapelt
powerbank
akzent
möbeln
zusätzlich
geleitet
langen
ol@@
verbindungsstücken
mitteldickes
leinen@@
handge@@
dichtem
leichtgewichtskonstruktion
reaktion
zutat
bewegungsfreiheit
druck@@
ä@@
gubbarp
gemuster@@
sanf@@
rücken@@
nicht
volan@@
schiebetürrahmen
basquiat
tig
stem
herbst
keine
vorwaschprozess
behandla
tablet
spielen
massiv@@
igere
unterstützung
puppenmöbel
performance
tenmachen
birnen
laken
deshalb
anhaften
näch@@
aroma@@
c.nicht
%
das
dreieck@@
whi@@
midi
tigkeit
gestal@@
touch
getragen
ler
stuhlhöhe
entsprech@@
stilvolles
schnappverschluss
furnierte
klassisches
direkt
netzstecker
körpergerecht
reißverschluss
bleichen.trocknergeeignet
essig
tem@@
polsterung
klappe
scheuer@@
mieren
hlt
ar@@
oberkante
on
farbkoordiniert
knitterarm@@
stuva
warmen
überdachte
setzt
bürstverfahren
ell@@
grill
etc
gebürstetem
unfu@@
arbei@@
athleisure
auflagebuntwäsche
krümelkuchen
rücken
bahnen
nis
yoga
figurnahe
refle@@
sollte
energie@@
geren
jahre
staubsaugen.mit
aufräumen
umgebung
mäßig
einander
ppe
wechseln
zucker
erweitern
freund@@
durchgefärbte
textilien
gewagten
innenräume
sofa
umweltstandard
haring
wirken
nummerieren
lounge
hervor@@
geräumt
verborgen
effekti@@
erlaub@@
blau@@
drücken
stück
ent
füße
sern
bezugwir
farbenfroh
reißversch@@
kissen
gema@@
freunde
individuel@@
schirm
eisen
speziell
stange
knöpfen
schaden
gegenstände
antimikrobi@@
hindert
braucht
fri@@
kochbücher
nachtruhe
mikrowellenherdgeeignet
met
els
hör
dige
t
sitzgruppe
trofast
links
festklemmen
öffnungen
schweden
kreativen
a@@
große
anlehnen
durchziehen
trendigen
pul@@
monitor
zuschieben
ungeschützt
tradition@@
cool
latex
einfa@@
gele@@
erneu@@
aro@@
gleichzeitig
licht
höherer
ennen
satingewebte
springt
schubladenfronten
stabiler
schal
flexibilität
monaten
ten
variante
digital@@
leuchtenkopf
fangen
gerei@@
wirk@@
natürliche
ierung
flauschig
reliefstruktur
tosterö
waschgang
ran@@
statt
rucksack
idealen
tragebeutel
freistehende
x1rib
top
pe@@
kunststoffmaterial
festere
wartung
besseren
erhitzen
holzböden
leuchter
sam@@
bügel
trockenen
hör@@
schulter
pflegen
hel@@
schmecken
lederfür
onnen@@
staubsauger
vor@@
19@@
spanplatte
geformten
aufsteht
kapu@@
textil@@
baumwollfasern
frühlingshaften
brem@@
tel@@
sweatjacke
hüllen
sandwich@@
ornamenten
verbessert
gesteuert
transportiert
-@@
weiterer
nass
ecp
anschlüsse
natürlichem
ausrüstung
oberflächen@@
leistungsstarken
ht@@
sollen
gegen@@
tet
straßen
reiner
far@@
zart
ungen
robustes
temperaturregelung
einheitlichen
ton@@
wetter@@
etikettenhalters
gehängt
gerb@@
fühlt
italienischem
angenehmen
frische
erschein@@
eiten
läuft
ollt
schmeichelt
gelegentlich
tionsvermögen
dal
hygienisches
sta@@
knitterarmer
ringe
stoffe
bevorzugen
knit@@
eimer
gemütlich
markieren
miniaturausgaben
fäden
erter
verhindert
ölbehandelt
ordner
verdünnt
strapazierfähigeres
lebendigkeit
uch@@
omlopp
dadurch
verriegelungsmechanismus
extra@@
unglaublich
tieren
schussfäden
hüllt
daher
blume
rück@@
tischplatten
ausziehen
zugang
verwöhnt
färbemethoden
schonend
druckknöpfe
darüber
versehen
gesetzten
tran@@
gezwirn@@
spiegels
desodorierendem
verleiht
optisch
dämpfend
einzelnen
umzug
doppelwandig
messer@@
häuslichen
echtleder
formgebogener
trockener
tuch
rotierende
naturfaser
erwärmen.geeignet
lebt
passen
chrom
entsperrt
kochgeschirr
etikettenhalter
eits@@
milben
schalen
b@@
flecks
nyboda
sätzen
seite
20
zeitloser
led
glas@@
geraden
gewichtsgesteuerten
geschaffen
ergänzung
ausführung
blick
wa@@
ri@@
lauf@@
dickeres
styling
netzstoff
komfort
sideboard
er@@
schirm@@
wasserdichter
anwendbar
integriert
farbtönen
verbindungs@@
seitennähte
swe@@
montierten
küchen@@
sh@@
brot
ppen@@
le@@
färbeeffekt
98
tisches
sommermöbeln
schw@@
kissenbezugnicht
lt
magnetischer
symmetri@@
ganz@@
großer
stress
schals
nützliche
65
desodorierender
relie@@
steuereinheit
wandmalereien
lla@@
nahtlosem
aufbewahrungs@@
40
schiebetürpaar
kunststoffmaterials
seinem
belüftung
ausschnit@@
palette
längs
funktion
hosenaufhängung
selten@@
knien
zeitlose
serv@@
a4
holzgriffe
stapelbetten
rund@@
auen
angenehm
nähen
;@@
minimierung
gebräunte
git@@
roh@@
und@@
ße
schale
leibhöhe
kreide
einlege@@
reiben
strahlung
kinderspiele
tagen
schichtverleimter
oberfläche
wass@@
zwieback
mittel
gewebtem
ons
tieferer
herauszuziehen
schurwolle
farblich
waschmittelmenge
lei
stellschrauben
knö@@
basi@@
gezogen
trocknergeeignet.links
füßen
will@@
löchern
händer
ausgearbeitete
einheit
wählen
wegstellen
mantel
ev@@
gestaltet
stro@@
fusselt
ale
ungeschälte
polyethermatratze
münzen
lage
entspannen
klebeband
feinem
offenes
ring
verbirgt
mige
dich@@
langsam@@
stabile
ausonia
installiert
schütten
deln
kaputtgeht
integrierter
dickem
erkennen
coun@@
zimmer
rundum
bodenfeuchtigkeit
ste@@
sha@@
memoryschaum
abgang
barem
silhouette
besorgungen
entwickelt
dire@@
fo@@
versteckt
dar
kaltschaumschicht
evtl
s@@
beschich@@
sommer
seit@@
neuen
beschri@@
dort
anbau@@
überall
voluminöse
ergonomische
biegsamen
fersenbereich
dessen
hammer
persönlicher
spielend
finish
re@@
schmutz
interessanten
krawatte
appeti@@
pol@@
großzügige
stabmuster
gleichartigen
rein
ig
tion
falten
kaltem
strapazierfähig
weiterentwickelt
slips
minuten
geschütz@@
sicheres
durchgefärbtem
herstellung
gefriertruhe
zeigen
holzmöbeln
anzu@@
geben
weil
eingepasst
löcher
160
bezughandwäsche
solo
laufende
erschwinglichen
angepasst
geflügel
ellen
kür@@
mp3
spandex
20@@
ing
tragevarianten
eindringen
unterzubringen
sisal
110
wege
radikalen
töpfen
ssen
so
ner
nicht@@
kochtemperatur
spannenden
speise
jeweiligen
telefone
atmosphäre
wenigen
wohlige
brat@@
schwarzbraunen
spinn@@
kühle
übergangszeit
hause
computer
endem
ellfedern
reinigen.bezug
ier@@
jackentasche
metallmit
freude
fahrzeuge
tabel
ultimati@@
schränkt
zutaten
lediglich
malen
gleichem
überraschender
wärmende
gewebten
pf@@
farbunterschiede
hoch@@
wohnräume
flug
winddichter
atmungsaktiv
strapazierfähigere
schein@@
lantik
schmaler
kräf@@
fensterdekoration
einstieg
kostü@@
/
früchten
ess@@
imprägnierung
schimmer
stimmungslicht
verstärkt
beginnt
veranden
gefäß
sitzschale
entü@@
körpernaher
wieder@@
schlichter
gummiband
orien@@
saugnä@@
ungehindert
deckels
ordentlich
perfekten
verwendbar
fuß
3er-sofa
auflage
legt
reinigen.in
sig@@
ari@@
stock@@
schlaf@@
bügelloser
nachwischen.4
bö@@
süßer
einfacheres
hervorragender
objekt
variationen
somit
gepolsterte
lemaire
geschickten
wagen
saugnäpfe
lässigere
tiefe
montage
tter
verpackt
koppeln
neig@@
sind
bän@@
problemlose
note
verbinden
lauch
weins
funktionalität
verhindern
robustem
anderer
klettern
zerlegt
nichtgebrauch
kleinkindern
material
pfannkuchen
schär@@
haften
lm@@
weichspüler
gern
nimmt
gibt
netzstoff@@
abfluss
komplettiert
verschiedene
schreibtischzubehör
unebenheiten
hellere
gen@@
zar@@
frauen
sol@@
stahls
ge
geordneten
gesalzen
lösungen
balanc@@
päckchen
mustern
aller
oder
airism
robuste
anliegender
geschlagen@@
kabel@@
erhält
button
staub
vielfäl@@
me
zwe@@
luxuriöser
blument@@
wegwerfwindeln
ergebnis
gerippten
lass
stundenlang
saum@@
ablenkt
überarbei@@
behagliches
geprägt
geringen
uer@@
sonnenbestrahlung
nahtloses
ust
erhältlichen
unglaub@@
gleichmäßiger
abwischen.korpus
chem
bleichen.@@
hne
gekli@@
dekoriert
vidga
pen
einsetzen
milder
zeu@@
einla@@
unterstreicht
opti@@
schlichten
genug
schönen
regalboden
schwächen.für
praktischem
ke
festliche
stimulieren
träum@@
überkochen
nahtlose
maschine
klappt
alltags@@
knackigen
weste
italieni@@
narbenleder
normal
kleidungsstücks
kleine
raglanärmel
hal@@
gefahr
nachwischen.mit
feuchträumen
kanalsteppung
einstellbarer
gemeinsam
gehärtetem
verschluss
stängel
schar@@
geschnitten
ausziehboden
mechanismus
kocht
waschen.nicht
imprägniert
schon
anbau
geträn@@
unaufdrin@@
ausge@@
go@@
kallax
lebensmitteln
rollen
energiespendende
unterbinden
günstiges
sets
schultern
befestigung
seinen
lockeres
himm@@
authentisch
bedarfsangepasste
a
aktualisierte
strickstoff
entfaltet
sko@@
kalender
figurna@@
grundtal
drehfunktion
perfe@@
steck@@
19
barer
bohnen
kr@@
digung
bedarf
zung
sitzhaltung
einrichten
sv@@
lässig
lon@@
mp@@
mikrohohlfaser
el@@
radiergummi
komplement
figurnaher
je
teppich
genauso
stuhlkissen
nachverfolgen
übersichtliche
führt
komm@@
ge@@
beschriften
lich
gerä@@
nahrungsmittelabfall
man@@
austausch
war@@
platz
lederpflege@@
getränke
gedeihen
betten
scharniere
bequemer
outdoor
up
del
hig@@
den
kompaktgarn
zusammenfalten
bett@@
folie
metalldrahtkorb
situationen
glasmit
herausziehen
breiterer
fleisch
stoßen
beschä@@
mahlwerk
klemmspot
töne
erwachsenen
ausweis
ausrei@@
babyfläschchen
effekt
herausragenden
fächer
raum@@
dehnbaren
wertstoffe
po
bequem
for@@
kopf@@
untergebracht
care
sommerlichen
snack
voller
kräftiges
lm
fra@@
lifewear
entspanntes
ausziehbar
stul@@
faulenzen
dichtgewebten
lack@@
kernholzpartien
cht
integrierten
gewebt
glattes
her@@
mischeinsatz
dvd
füllen
dezentere
dskär
kra@@
nachlasieren
leuchtgruppen
zusätzliche
zogen
abgerundete
waffel@@
geruchshemmenden
unterbringung
cher@@
gie@@
geruchshemmende
augen
holzdübel
weißspektrum
kal@@
regulierbarer
wäschekorb
unterschiede
beiden
stabil
ungs@@
wahr@@
offenem
modernisieren
ter@@
dekogegenstände
vorbereitet
aufgeraute
spürt
grundausstattung
aufbewahrung@@
schau
kleidungsstück
fenchel
böden
.mit
senf
85
aquaculture
vollkorn@@
ausgewo@@
arten
lischen
mie@@
jogurt
holmen
ler@@
basis
energiegeladenen
geschütztes
hellgrau
tierte
ti@@
tert
üree
beschlägen
da
befestigen
vorderen
dingen
breite
holzmaserung
kurabo
regelmäßig
sch
ig@@
filtern
hochstuhl
bettseiten
lie@@
zep@@
o
gri@@
kommen
entspannung
umt
abgenutzt
dliche
langsames
tischmitte
&apos;
einsatzfertig
eigenschaften
schaben
kleckern
unnötige
schein
beschichtet
klassiker
elastisches
leuchtmittel
gesäßtaschen
keramik
eichenfurniers
innovati@@
dezen@@
mmt
modischen
ausdrückt
aufhänger
schwamm
anbringen
produkts
un@@
ck@@
eindringt.vor
lüften
flecht@@
dimmbar
fenster@@
pollen
gepolsterter
dann
spin@@
aromadichter
pilling
ör@@
seitlich
front
kindes
verdunsten
zeitungen
w@@
mischgewebe
stilvoll
gras
färbung
samen
schnitten
leger@@
couchtisch
blazer
porzel@@
himbeer@@
anliegen@@
weniger
italienischen
kaninchen
beleben
unvergleichlich
ber@@
zange
heizkörpern
bildung
produkt
hinter
abwischen.mit
sich
tischen
duftkerze
y
überschnittene
geringe
gera@@
nal
trägt
res
liebling
durchscheinende
matten
zä@@
einsatzes
sortieren
anpasst
schiebt
unkompli@@
individuelles
bügelsäge
jacquardwebart
ordneten
gepfleg@@
neigt
ex@@
teil
kopfkissen
gestellmit
umwelt@@
authen@@
aut@@
reibung
bezüge
ans
na@@
gerecht
kuschelatmosphäre
schmiegsame
kräfti@@
dehn@@
wir
trocknendes
drinks
ausschnitte
ne
luftig
eigentlich
funktionelle
schrankinnenräume
strapazierfähigkeit
figurbetonte
geschnittenes
gewöl@@
abgestimmte
klirren
geschmeidi@@
sammeln
glänzender
pflegeleichter
dekorieren
klemmen
geräuschlos
beliebtes
minimier@@
auszieh@@
detail
vertief@@
auseinander@@
getränk
baumwollsamt
bezugleichte
kä@@
eindruck
dimmer
zucker@@
schnelle
verstärkung
kan@@
kosmetik@@
gesicht
cher
unterbindet
sportliche
schlicht
mithilfe
zustand
stabil@@
schrubben
trocknergeeignet
stoß@@
saugfähige
funktionssocken
gelagerter
wandbefestigungen
säubern
handarbeiten
heben
decken@@
strapazier@@
sockel
ment
wirkung
pflegeleichten
entspannter
marm@@
süßigkeiten
duft
trinken
lagerung
ungleichmäßige
wäch@@
löst
schreibtischkombination
ramie
tren@@
baumwollmischung
toll
lade@@
lan@@
seifenschale
ecksofagestell
bekannten
ali@@
westküsten
schneidet
alternative
genäht
hinzugefügt
montiert
her
blü@@
lat@@
solarzelle
polster@@
ausschnitt
hand
hervor
haare
aussehen
intensi@@
sprz
regalrahmen
salz
stoffeinlagebuntwäsche
bi
schonendes
textilschirm
lager@@
su@@
uneingeschrän@@
lässiger
stan@@
aufbew
anhaltenden
fünf
wie
einfachen
helle
herausfallen
port
dekorativem
versetzbaren
teig
polyester
maßen
optische
krawatten
tz
soli@@
dicken
ebenso
sten
besorgt
öffnen
lederpatina
stützkreuz
s-t-shirt
bodenroste
bz@@
feder@@
gro@@
schweißtreibenden
abweisende
doppelklebeband
kuggis
chtes
unterlagen
meter@@
anpass@@
gewährleistet
künstlern
frei@@
rückenlehne
eller
allzweck@@
schnee
kleiderstapel
echtes
ni@@
kunststoffmit
zerkratzen
ker@@
sli@@
anhalt@@
lichtwinkels
ei
kammgarnbaumwolle
wann
ca
nachhaltiger
angeschrägte
komfortmerkmalen
band
em
indig@@
mm@@
projekts
jalousie
250
fleece
biegen
korn@@
ennenden
denier
kunststoffnoppen
smartphones
einkuscheln
einrichtung
schwa@@
gla@@
jogginghose
putzen
wasserdicht
doppelt
gespart
lieblingssessel
kekse
privatsphäre
later@@
pfei@@
reflexstreifen
lockerem
ob
sili@@
durchsich@@
bastel@@
konstruktion
moder@@
pinsel
aktivitäten
rundung
mundgeblasen
kaum
wirbel@@
abgestimm@@
auslaufen
quer@@
briefe
trotz
geschlossener
ert
slip
por@@
wen@@
inter@@
dehnbarem
rasch
ku
schneiden
mitsamt
kleinen
direkter
fröhliche
vorzubeugen.eckelement
lo@@
hängeschlaufe
versetzbare
paneel@@
am@@
echte
)
materials
ergeben
belegt
neuer
zuhören
innennähte
lig
deut@@
zeitloses
inkl
ern
tritt@@
itali@@
grau
clara
stunden
pyjama
elastischen
schont
gungen
kunststoffrahmen
line@@
ausziehbarer
sensori@@
heute
schonwaschgang
arretiert
anpassbar
unterstreichen
beanspruchen
glatte
schultasche
trendiger
schmal@@
stretch@@
temperaturmind
klettbandverschluss
wenns
sport@@
austrocknen
hygienische
verwendbare
hosenanzug
laminat@@
innovative
kleinteile
zusätzlichem
erfordern
speisen
bekannt
bett
tiefentladung
leuchtdioden
wärmeisolierende
gem
übersichtlich
spüren
kombinationen
reif
korpus
vorzubeugen.rückenkissen
kerzenflamme
hafer
fügt
messing
kissenbezugfeinwäsche
stufen
ige
miniformat
grün@@
winkelt
verbesserte
cordlan@@
einfassung
passt
mehrfachsteckdose
lockerer
kleinteilen
gefrierschrank.spülmaschinenfest.@@
stretchgarn
träger
kun@@
farb@@
regalen
gr@@
molybdän
vielseitige
sofa@@
tigem
oberste
ausschütteln
eingelegt
samt
dicker
end@@
standortfür
stand@@
bel
ho@@
beugen
sahne
pflegemitteln
dichte
hohe
leuchtquelle
polyesterfasern
einfarbigen
aufbewahrungslösung
teppicharten
scharfe
höh@@
festem
beton@@
satz@@
vorgang
gediegenen
rippstrick
ch@@
gra@@
gewebe
eben@@
teilweise
schüssel
anat@@
energiekapazität
erneuer@@
reg@@
0@@
trockenes
ihren
festigkeit
aufträgt
lyocel
öse
durchstechen
holzmit
patina
waschbecken
kohlenwasserstoff.@@
gefällt
roll@@
bemalen
hitze@@
zei@@
hebel
höhenverstellbar
spendet
straße
bezogen
70
pfel
lieren
riktig
legten
advent@@
reisen
fließendem
zeh@@
anbrennt
anliegenden
armen
bl@@
getränkten
garne
haus
art
schlanke
cool@@
sofort
auflagen
rollkragen
entsprechend
,
neutral@@
entfernt
ein@@
textilüberzug
kabelklips
marathon
lap@@
gefrierschrank.spülmaschinenfest
harmonisch
hohem
individuellen
gen
praktisch
schmiegt
dekor
stil
bildet
mers
web@@
nachts
kalt
vorwärmen
angenehm@@
verpackungslösung
einfarbiges
zweifarbiges
beliebte
wol@@
erikani@@
esche
fähigkeiten
aufbewahrungsbedarf
klettband@@
eket
sanft
igem
zu
einteiler
luft
logisches
sicher
bateau
flocken
sportlich
behandlung
kannst
objekts
frotteebadematte
i@@
dlich
hängekörben
cken
holzcharakter
gradlin@@
scheuern
gewürzen
lagern
frühling
lichterketten
30
unterseite
brett
bitte
schreibtisch@@
handgeflochten
sitz
rundhals
län@@
tag
einsätzen
gestreifte
akzenten
bettgestell
außenfach
verstauen
zerlegen
hemdkragen
flaschenöffner
mittelkräf@@
raumteiler
leben@@
igen
gan@@
geometrischem
laststoffen
seitenteil
point
sie
stretchanteil
magnetleisten
tiefen
erte
massiver
anfühlt
zerteilen
leuch@@
reine
ärta
chte
aufspannen
grillen
femininer
accesso@@
raum
grundmaterial
ablei@@
är@@
l
erer
aufkleber
wärmend
phil
schlüssel
mü@@
bunten
zug
gelee
gehalten
seiner
schmiegsam
stehende
ben
tik@@
nutzfläche
abgeleitet
webart
mode@@
waffeln
inneneinrichtung
frequentierte
blaubeeren
weißen
verdeckten
digen
größe
weitere
verbess@@
fäh@@
tasse
unterlage
oberflächen
behält
größ@@
versetzen
8
lagenlook
geschnittene
reisetasche
fall
salat@@
sucht
dichtungen
as@@
the
make
stücken
ennt
pfefferk@@
etiketten
kunststoffknöpfe
solar@@
ecke
ch
sü@@
schnurlos
look
kunststoffbeut@@
ger@@
aktualisiertes
l@@
sägekante
spots
drin@@
tzen
pax
allem
besteck
faserbällchen
ß
app
legere
farbenfrohe
bewegungs@@
kochfeldvarianten
schrankin@@
einem
verdeckte
mikrowelle
aufbewahrungslösungen
tassen
spezial@@
knöchel
traditionellen
kerzen
vorzubeugen
freizeit@@
mehrfachsteckdosen
seifenspender
verbindungskonsole
ut@@
have
mikrofasern
essen
liegen@@
feuchtigkeitsbeständig
nen@@
ft@@
mikrowellengeeignet
eigener
überflüssiges
vorteilhafter
verwahrt
paspeln
linge
genden
ö@@
waschbar
genau
seidigem
protection
verschoben
kter
standort@@
elle
verletzungsrisiko
app@@
strapazierfähigem
rö@@
farbigen
diese
busine@@
selbst@@
formelle
schaummantel
brautkleidern
weizen
abnehmbarer
gartengeräte
verbindungsstück
farbbeständig
angebracht
hervorragende
hautsympathisches
methode
teppich@@
modisch
so@@
merksamkeit
bietet
diger
lesen
tischmit
wandschmuck
strecken
lor@@
geneigte
gießen
prägungen
gar@@
bouquet
geweb@@
truhe
lebendigen
benutzen
extrafeinen
trend
hocker@@
fernseh
stahl
einzuengen
arbeiten
wichtige
span@@
angenehmes
gebra@@
gerichtetem
tragisches
ausgestellter
bou@@
entweichen
haf@@
dicht@@
einfangen
nackenstütze
bie@@
beigepackten
kindersicherheit
machen
orangen
pfiff@@
tiert
wasserabweisender
wasserdurchfluss
verlängert
-mal
kompletter
metall
bettsofa
marmelade
gestellt
verbindung
balkonen
hn@@
halten
kreuzuntergestell
deckplatte
tp@@
v
gegessen
handhaben
haft
blumenmotive
eingefasst
ab@@
platzieren
leder@@
sand
verrutschen
stell@@
vi@@
geeignet.backofenfest
siert
magie
sein
einzigartig
magnete
reichts
schützen
wandschränke
vereinfacht
altert
kombin@@
steckdose
beg@@
weizen@@
geflochtenem
baumwollähnliche
ganzen
kna@@
ausziehsperre
kom@@
kältebrücken
punktgenau
gleichmäßige
der@@
sessel@@
lation
räumlichen
uld
ven
gekochten
herrlichem
denim
trocken
trocknergeeignet.bezug
beiliegenden
nden
rhabarber@@
liches
trenner
babys
sitzgruppen
tollen
mindert
erinner@@
träumen
mitgeliefert
durchgefärbt
skandinavische
darauf
heim@@
obstschale
schoko@@
schonen
wind@@
hänge@@
lieblings@@
stän@@
em@@
rollos
geeignet.für
bildschirm
farbecht
blumenständer
gebo@@
hüb@@
ds@@
zusätzlicher
geschmackserlebnis
unten
lektion
rhab@@
st@@
gu10.400
becken
koordin@@
schei@@
glanz
möbelkühl
natur
geradem
konzipiertem
pp
heizkosten
stofftierfeinwäsche
kürzere
trådfri
geschr@@
sier@@
obersten
färbe@@
zusammensetzen
spülmaschinenfest.@@
decken
tülle
falt@@
herzhaften
pass@@
unbegrenzter
edler
ausch@@
kratzfest
ß@@
zubereitung
ungestört
mrd
chenillebezug
wärme
lässiges
beigepackte
handtuchhalter
g@@
polsternicht
schul@@
adrette
langlebig
lewitt
butter
polyesterwatte
druckknöpfen
ablaufen
gewebter
papier@@
kie@@
é
sie@@
festge@@
nä@@
abbürsten
fruch@@
hervorstehende
julfika
reinigen.den
hosen@@
alko@@
zirku@@
silikon
bank@@
speziellem
luftzirkulation
tischbeine
gerü@@
ele@@
aufgeladen
dehnbares
charmante
sse@@
spiegelung
deckeln
reichlich
ansluta
modern
bügeln.hängend
unserer
urethan
herr@@
basics
beide
präsentieren
weder
lecker@@
verstärkungsfäden
bezugseparat
ffelhorn
d@@
eren
mchen
echter
geschwin@@
tetrachlorethen
ste
handgewebt
unebenen
hübsches
durchdachten
gebrauch
beständigkeit
tzungen
halb@@
haltbarem
nun
tige
dampf
beste
linealen
workwear
gener
griffs
nord@@
sticker@@
unbegrenz@@
schalter
großen
vitrinent@@
rostgeschützt
trach@@
kleidung
hochzuheben
c.von
spiele
hängeleuchten
glas
flach
h@@
beinen
höhe
origin@@
kombinieren
nutzung
gerbverfahrens
drückt
kartoffeln
vernähte
vanil@@
schon@@
ersten
hübscher
com@@
sonnenlicht
feste
stauraum
einträchtigt
daraus
künstliche
klammern
authentische
ften
sommer@@
n@@
lü@@
tagesbettgestell
ausgestellte
gegrilltem
schränken
matratzenbezugnicht
anheimelnde
tur
jerseystrick
schnelles
kind
pralinen
akku@@
bereit
waagrecht
hoch
angebrachtes
rost
zeichnen
knöpf@@
sieb
aufbewahrung
reinigen.mit
erfordert
platzsparend
leistungs@@
zusätz@@
schubl
getaucht
antimikrobiellen
tetes
regenwasser
brille
verdun@@
führen
ka@@
schmutzabweisend
schme@@
locker
effektiver
zusammenknöpfen
industriecharakter
elegant
strapazierfähigen
m@@
pre@@
karaffe
00
einen
wach
warm
ffen@@
körpergewicht
outdo@@
gebürstete
zweck@@
sicherheitsfolie
möbelfüße
vers@@
figurform@@
haltige
achten
fensterputzmittel
bieten
bequemem
cotton
durstig
garndichte
draußen
verspieltes
hintergrund@@
lösung
erle@@
ate
hochwertiger
geschwungenen
dress@@
hygienisch
auch@@
genähtem
klassisch
elemente
mitten
trennste@@
geeignet.an
taschehandwäsche
ckert
orchideen
aufgeräumt
stahlsei@@
strahlen
gekür@@
spezialgewebe
kleinere
ringschnalle
kohlenwasserstoff.hängend
einlaufen
mehrerer
aufstehst
kohlenwasserstoff.polsternicht
cker
einheit@@
weiß@@
reiniger
punktmuster
unterstützt
bücken
ansprüche
ausgerichtet
grei@@
servier@@
grund
stoff
tapezieren
becher
trocknend
gx53
sitztiefe
zimt
dose
nachwischen.korpus
gesamtwirkung
wisch@@
umweltfreundliche
zeitschriften
unverwechselbaren
50
aktivität
tt@@
stimmung
zentraler
handgeflo@@
hobbymaterial
splitterndes
geschä@@
wohl@@
praktischen
funktions@@
hüft@@
aufbewahrt
saison
zucht
hitzebeständig
energieeffektive
baumwollsatin
melamin
reinigen.innenkissen
gesamteindruck
waschbar.nicht
garantiebroschüre
enden
chlor
stapeln
hl@@
straßenverkehr
nüsse
kameras
minderung
schnittführung
stretch
greifen
schneideunterlage
wers
schlanker
reagieren
austauschbar
stauballergiker
kleider@@
nach
stoffen
board
ihnen
karomuster
gardinen
drucköffner
liche
koordina@@
willst
tüten
kaffeebohnen
getestet
verstärken
glä@@
helles
kapuzenjacke
hin@@
ank@@
harte
tos
vol@@
ursprungsform
glänzen@@
micke
formt
teren
farbstoff
handtuch@@
bohr@@
feuchtigkeit
klapp@@
feuchtigkeits@@
leger
dre@@
direktes
al
jean-michel
paneele
sorten
türoberkanten
wich@@
schwarzen
formbund
gestaltung
weiß
halbhohe
denn
minz@@
seiten
klinge
bücher
verbun@@
henkeln
c.@@
qualität
wand
gardinenschiene
problem@@
z@@
seegrasfasern
druckbeschlägen
w.
preiselbeerkonfitüre
abnehmen
druckentlastend
arganöl
regentropfen
ordnen
algot
wo@@
sorgfäl@@
zerbricht
kunststoffhaltern
nachbehandeln
richtige
voraussetzungen
stilvoller
kreuz
strahlregler
rahmt
matt
fensterdekorationen
verkehr@@
häufig
sin@@
kleidern
benutzt
diskret
stark
elef@@
astspuren
wickeltischkante
th@@
schmutzwäsche
verantwortungsvoller
spielkonsolen
vanille
regalelemente
doppelbett
komfortabler
servietten
persönliches
glattem
fen@@
kasten
niedrige
rostfreiem
flexib@@
gerechter
strahl
äpfeln
jersey
beleuchtungsbedarf
;
etikett
dreidimensional
zarte
wel@@
korb
ny
regulä@@
schmuck
pullover
schwerer
dennoch
knit
blumen@@
freizeitlook
fin@@
des
inn@@
fensters
era@@
filzeinlage
reißt
nachttisch
dämpfer
crackern
ill@@
zitro@@
bezugreinigung
getrennt
öffn@@
här@@
kunst@@
einzu@@
arbeitsplatte
designs
zeitunglesen
häl@@
merkmale
zarter
ärmellänge
messen
chel@@
dunkelblauen
.nicht
körperkontur
knitterarme
anti@@
bekommt
rostbeständig
teter
leuchten@@
legerer
schlichtes
gardine
unsere
anten
stands@@
holzstruktur
ür@@
synthetischem
gerste
niedrigen
nachhaltigkeits
polyesterfaserwattierung
flust
handlicher
dick@@
uniqlo
shampo@@
trockenwischen
ausbleichen
stoßfest
jetzt
zeit
licht@@
könnte
maßeinteilung
nutz@@
dusche
streifenmuster
m
sei@@
trocknenden
fast
leuchtstärke
schlichte
fernbedienungen
topf@@
hafer@@
geriffelte
holunderbuschs
zeitangabe
digem
löffel
récamieren
abwechslung
gemüse
scheuert
wandre@@
drei@@
flüssi@@
rissbildung
seitig
trägern
polyurethan
cremefarbenen
sternen@@
attrakti@@
fel
r@@
pilling-ausrüstung
lunchboxen
passform
abschütteln
flexibel
desodorier@@
dill
anders
schaumfüllung
handschuhe
klettverschlusses
all@@
kunstrattan
racerback
28
hiphugger
stufig
matte
ben@@
fersen@@
arbeitshöhe
new
übersichtlichen
e14.200
zunehmen
aufsatzwaschbecken
feldern
pflanzenlampen
hakens
spr@@
astlöcher
hahn
nächsten
gewährleisten
rustikales
zwei
reliefar@@
teil@@
verleihen
grund@@
gezeichnet
mal
abstand
kunststoffeimer
massiv
en@@
-
markanten
im
langlebigkeit
hoher
wat@@
hen
trendige
natürlichen
blick@@
schließen
flexible
ripp@@
herausgezogen
tablets
weiches
polyester@@
gleichmäßig
gehärtetes
einsetzbar
schließen.nicht
sauber@@
konzentration
magne@@
kragenfutter
risiko
kaschmi@@
bio@@
sportlichere
gabe
henriksdal
figur@@
teesieb
möglichkeiten
obendrauf
hemddetails
unauffälligen
zuziehen
farbton
zogene
sorgt
anschluss
jerseystoff
dicke
verdeckt
gestützt
flüssigkeiten
griffbereit
zt
gewebte
saftrinne
ja@@
gewebe@@
verbunden
al@@
sil@@
muster@@
grifföffnungen
servierwagen
sich@@
u@@
unterschiedlichste
angeordnet
methoden
kasserolle
ieren
laminierter
gewür@@
zuschnitt
ärmel@@
original
milde
holzdamit
normales
ell
saugnapf
tischoberfläche
kommoden
jean
iert
kombinierte
rock
abwechsel@@
schlafplatz
arbeitet
matratzenbezug
tür@@
woll
ursprüngliche
ungssp@@
flammengarn
brie@@
ung@@
herunter@@
tier@@
viel
keith
möbel
langstapeliger
freie
strukturen
tenem
gepäcks
persönlichen
professional
liegt
er
überallhin
nationalgericht
bedeckt
gebohr@@
clever
rutschfeste
klips
gerne
abnehmbar
ef@@
grafi@@
komfortab@@
ps
typische
schnellen
maße
verändert
einstellbar
hält
pfeffer
deckenmontage
käse
ladeschale
funktioniert
kodes
schließender
nächste
hantieren
knopfverschluss
gerät
lichtpaneele
schieben
tafel@@
harmoni@@
karten
servieren
sonnengereiften
gummierter
tradi@@
lässigen
dosieren
filzgleiter
taschendesign
konsolen
daran
küchenutensilien
mundgeblasenem
viel@@
auft@@
gkeiten
bil@@
häus@@
regt
saisonalen
gs@@
ecksessel
wäldern
tliche
abwechs@@
mehl
vielfältige
robuster
doppelhaken
erneuerbares
sicheren
größten
estate
blumen
anheben
zusammendrücken
schnitten@@
ablage
unregelmäßigem
stabi@@
licensed
hülle
stehkragen
portioniertem
geschmeidigem
kur@@
effektvolle
lillabo
freizeit-looks
arm@@
knusprige
lebensmittel
mo@@
ens
wagens
soziale
emailliertem
stärke
schleifmittel
fusselfrei
strapazierfähiger
kissen@@
entei@@
elektronische
anlass
au@@
hochwertigem
schnalle
gewachst
rä@@
bedien@@
3@@
dor@@
höhenverstellbarer
stützt
überbelastung
matratzenicht
menschlichen
gemü@@
süße
stuhl@@
sicherheitsgetestet
cm
scheren
brombeeren
gürtelschlaufen
sohle
lern
rückenpolster
gute
format
ohne
kühlschrank
gesetzte
gesamte
zufügen
perfekt
kn@@
ultravioletten
spann@@
kleidungsstücken
teiler
bleibt
reinigung
dopp@@
faltenband
deko
voll
läufer
gesteckt
form@@
fen
platz@@
elastische
x5@@
bund
kaffe@@
diesen
sterilisiert
erwärmen
gleichmäß@@
shorts
en.nicht
fahren
gruppen
schublade
benötigt
terrasse
haftet
mögliche
ms
grünpflanzen
se@@
regalelementen
ga@@
verborgener
alltag
würziger
kompa@@
schläft
hände
würz@@
shirt
waschpro@@
trösten
beugt
enormen
nordeuropas
wieder
stapelbare
j@@
drehbare
dung@@
ponte
raster
forscherdrang
mar@@
einzelbett
ladepa@@
zusammengeklappt
s
hmen
bevorzu@@
pst
lederstaubsaugen
kunden
ru@@
aufheller
polyesterwattierung
dampf.chem
schaukelstuhlgestell
aluminiumrahmen
verzinktem
lau@@
bettzeug
emaille
vielseitiger
gelöst
beschichtung
zusammenhalten
toray
koffer
abgeflachter
funktionennur
nachfüllen
gewürz@@
18
ebenen
dein
schoner
gebung
lockere
liges
auflegen
wer@@
tiere
zudem
normalerweise
hren
sehen
familie
b
tour
grünen
geschlossenem
eingestellt
vermögen
einmalig
atmungsaktiver
arbeiter
dauerhafte
weitig
kerzen@@
garn
upf
minimale
ücken
lichtdurchlässiges
eleganteren
hohl@@
leitungen
bleiben
rechnen
sanftere
weich@@
gebraucht
lamé
polyestergewebe
iges
bringt
geneig@@
schwarz
lagenlooks
trockenem
setzen
nachhaltigen
kann
mol@@
umgedreht
tern
herstell@@
elegantes
dichtere
unauffällig
aum@@
er-@@
200
gerich@@
wegen
tte
gesti@@
feuchtigkeitsspendende
gründlich
lederähnlichen
unbehandeltes
kochvorgänge
tragbar
basteln
din@@
einladend
ir@@
beschichteten
gossen
fern@@
schlitze
fächern
wandleiste
erforderlich.den
erleichtert
pflegeleichtem
iel@@
auflagedruck
offen
plätze
ien@@
eignet
starke
ergebnisse
praktische
bindebänder
gleich@@
metallring
beauty
mitz@@
e27
behalten
bak@@
beides
lüftungsöffnung
tierung
wärme@@
sparendes
verschüttet
stärkeres
gx53.600
blend@@
za@@
bewegung
kühl@@
nordwestlichen
abmessen
struktur
lich@@
punkten
isolier@@
urethan@@
rückenkissen
gummizugs
wert
bezugmit
muffins
sen
hänger
z
naturmaterialien
dezente
ton
kreiert
ihr
femininem
supima
bodenaufsatz
spannung
reinigungsbenzin
premium@@
kunststoffbeschichtung
tere
hüften
geöffnet
teppiche
bleichen
zugband
üre
stofftiere
raffhalter
omega
hitzeverteilung
gesamten
verschlussmechanismus
mmen
einrichtungs@@
erweitert
löhnen
vorteilhafte
9@@
vitrinentüren
obermaterial
les
preis
eingehängt
sandalen
naturmaterial
kreativität
sicherheitsventil
größere
ausführungen
stemp@@
umplatzieren
stiel
recht
zerkrümelt
klassischen
versi@@
zieht
platten
beschreibbarer
schinken
gem@@
zehen@@
chinos
globalen
rutscht
figurnahen
sichtfenster
kante
jahrelang
variieren
guter
at@@
tro@@
ns
kürzester
cds
schön
-looks
ideale
tief
riemenantrieb
spül@@
lte
durchparfümiert
schatten@@
furniers
glüh@@
möbels
ausbalanciert
schlafzimmer
vielseitiges
&apos@@
transparen@@
gestreiftes
chambray
holz@@
längerem
taillen@@
rebellischen
bein
nahm
ultrafeine
druckbeschläge
unnötigen
nu
mitgeliefer@@
deine
erwachsene
aneinander@@
schaltet
en.geeignet
daunenparka
büro
br@@
edelstahloberfläche
abtropf@@
feinen
schneller
standfestigkeit
rest
möbeloberfläche
tze
akzentfarben
klei@@
schat@@
ebener
eit@@
kinder
geruch
unbehandel@@
karamellnote
temperaturwahl
inklusive
hohen
minimieren
rm@@
zuhängen
gerätearten
tisch
waben
schräg
erlesenem
gekocht
gefüllt
looks
melamin@@
aktualisierter
dabei
ort
ausbalanc@@
stahlmahlwerke
spielt
raubt
kunststofftragetaschen
w
zu@@
zusammengefaltet
garten@@
schmusen
feinster
sitzig
klemme
stiel@@
mer@@
glänzende
natürlicher
aben@@
hänge
verschiedenfarbigen
ganze
federanteil
eingesetzt
zer@@
bekommen
farbvarianten
blendschutz
verschwendung
stärk@@
eingesteckt
normaler
zusammenstellen
unterbringen
flüssigkeit
dickerer
saugfähi@@
strecke
robustere
praktisches
ere
papiere
eindringt.das
nährwerte
beliebter
feuchträume
braten
aufschnitt
anhänger
ziehen.einlaufen
stre@@
automatisch
fugen
gelen@@
aufhänge@@
messer
sonnigen
gebackenen
zweila@@
duftbehälter
dem
player
raffinierte
lack
üben
quarzuhrwerk
miracle
sonnenbrille
tischdekoration
klappten
nachwischen.spülmaschinenfest
blickdichte
salat
wurde
handwarmem
sitzfederung
nachwischen.kleiderstange
dehnbarer
vermei@@
vergnügliche
schneide
finden
keh@@
integriertem
einzigartige
zuschneiden
slu@@
verbindungsbeschlag
pan@@
äuß@@
garantie
kissennicht
aufhän@@
höchsten
papierrolle
glattere
fadendichte
versch@@
sahnesoße
soziales
desodorierenden
temperatur
helfen
hart@@
resten
selbst
bohren
aktive
stretchstoff
hemden
zent
jahren
behand@@
sonne
schmale
eingearbeitetem
kto@@
doppelwaschbecken
vollständig
hejaren
ausgezogen
umzustellen
stets
sandpapier
gerollt
umgekehrt
erst
kochfelder
geschirr@@
geringer
nähr@@
automatisches
unverwechselbare
eln
durchmesser
lässige
kurzärmeliges
geschützte
verstellbare
körper@@
einstellbaren
geformte
druckt
lichtkegel
reduziert
gefrierbrand
nachwischen.hosenaufhängung
fischerei
eng
gleich
sts
besteht
sauber
verschiedener
us@@
ckt
:
ihm
tt
anfeuchten
zieher
obst
langem
knöchel@@
pfirsichen
höhere
zuklappen
regen@@
pflanzen@@
mühelos
schränke
c@@
polyesterstoff
gefrorene
grö@@
teils
holz
pro@@
nachwischen.tür
farbkombinationen
ht
ierten
stückchen
1@@
fußbett
luft@@
stuhlbuntwäsche
möchte
must
heiten
quellen
ver
waschbecken@@
fle@@
verstärk@@
zugunsten
t@@
rostfrei
verschließt
handel
herkömmliches
bade@@
traditionelle
gut
.den
unauffälliges
perfektes
beobachten
schüsseln
beschädigen
protein
fußkappen
kaffee
armlehnstuhl
volpi
steckdo@@
akzen@@
weit
nacken
teleskopgriff
verstellbarem
www.utz.org
tische
hemdkleid
oberseite
geräuschdämpfend
füßlinge
geräumiges
essens
aber
igkeit
ö
wohin
ecksofa
klett@@
auseinanderzunehmen
tr@@
imm@@
wind
vermeidung
eigt
ner@@
wells
mög@@
wäsche
forma@@
volle
stiften
gemusterte
gemütliche
glichen
with
kohlenwasserstoff.matratze
partien
abnäher
füllung
sommergarderobe
hervorragenden
stellung
wintergärten
milch
senf@@
aufgeraut
haltbar
attraktive
lässi@@
hüpfen
haltbares
4.@@
immer
windeln
durchge@@
haben
dank
pon@@
vertikale
aufgelegtem
sitzhöhe
passepartouts
dry
äpfel
täglichen
schchen
justieren
romantische
freizeit
ser@@
schaft@@
eindrucks
handumdrehen
konservierungsmittel
frühlings
male
kerbe
handgearbeitete
elegante
zeichne@@
ll
senk@@
starkem
märchen
fil@@
abstellfläche
vase
stoff@@
spielerisch
bürstenkopf
uner@@
sanftheit
chs
bord
mikrowellenherd
komfortbezug
onen
e14.400
seh
satinstoff
air
strapazierfähige
stoffüberzug
nahtloser
gewinnt
90
ball
flair
boden
män@@
erforderlich
schi@@
proje@@
zeitlosen
abklappen
stuhlmit
vergröß@@
waschlappen
nachdunkelt
ihres
lätzchen
herrlich
sowohl
ber
msc
erzeugen
stadt
verstellmöglichkeit
stigen
doppelfunktion
kombinationsschloss
außen@@
schlüssel@@
kanten
hand@@
kabelorganisation
10@@
arbeitsplatzbeleuchtung
samm@@
stimmungsbeleuchtung
dreh@@
gardinen@@
picknick
produkten
geraffte
rostfreien
professionelle
rustikale
ladeplatte
haupt@@
anwen@@
polstern
dung
dünnes
15
nt
end
bambu@@
en.für
ed
ausgezeichnete
engt
ation
kten
anlässe
&quot;
luftiges
tten@@
hahn@@
einflussreichen
hausputz
herren
spe@@
ausgezeichne@@
see@@
flaschen
schmeckt
alter@@
scheuerpulver
röcke
32
laterne
farb
lampe
lichtstrahl
frucht@@
aluminium
portionsverpackungen
empfiehlt
tätigkeiten
nachwischen.klapptisch
süßen
hautsympathi@@
hitzefestem
kontur
ausgießen
leben
grundstoff
ultimatives
besser
entscheiden
lose
gerunde@@
textur
zum
verhalten
f
jacquard
türschmuck
optimalen
prior@@
tropf@@
ganzer
abgenommen
mildem
handwäsche
farben
glaseinsatz
melierte
wäschekorbmit
badetücher
ssp@@
enor@@
vintage
kabellos
bruchfeste
dunk@@
weiche
kindlichen
künstler
planer
reise
befestig@@
hochelastischem
turen
nde
strahl@@
zuerst
ki@@
appetitlich
konta@@
flexi@@
streifen@@
extrabezug
schwächen
°
duften
reflektiert
couch@@
verschmu@@
see
spülbecken
schreibfläche
trockner
christophe
sser@@
vieles
miert
vorgewaschener
teln
dimensi@@
ausgeschaltet
hautfreundlich
stütze
frotteehandtuch
spinnfärbung
aufziehen
annimmt
strukturvarianten
von@@
miteinander
vitrine
chen
schuh@@
fördert
unterschiedliche
eingearbeiteten
rühren
kühlen
feuchtigkeitsspendendem
gesellschaftskritik
innenraums
verstellbar
schirmen
gegenständen
kleiderbügel
kti@@
erisierter
narb@@
tungen
geschoben
kälte
gehen
massivholz
reag@@
regelrechte
lederreiniger
mischbatteri@@
typisch
größeren
rückwand
aussparung
spülen
kürzeren
leuchte
team
anfangs
weicher
wattierten
sportsocken
gewöhn@@
2
sammelt
betätigung
j
flechtgürtel
kel@@
papieren
entfernbare
verzehr
wäschesack
hüfte
behagliche
kohlenwasserstoff.bezug
niedriger
feuchtigkeit@@
nachwuchs
positionen
öl@@
daunenmantel
herab@@
verlängerung
rückwär@@
erstaunlichem
lassen
igar@@
sichtbaren
fertig
cket
genehmigt
konsistenz
beginnen
riegel@@
strapazieren
traditions@@
schmiegsam@@
lackiert
nackenkissen
transparenten
geschmeidige
set
unterziehen
ripstop
ladepads
fallen
innenkissenbuntwäsche
bezugnicht
trocknen.einlaufen
besonders
nen
nuss@@
doch
klebe@@
tem
en
mischen
quer
bre@@
portion@@
schutzfaktor
an
vorderseite
komfortzonen
zerklein@@
optimale
falls
sieb@@
sa@@
jahr@@
hocker
ablo@@
rohstoffe
herz@@
runde
beschlag
öffnung
unerreichten
nacht@@
dekorativen
schmalere
charakteristi@@
pulver
variiert
tritthocker
gleiche
schrankraum
handliche
vanille@@
kindern
mensch@@
gemütlichen
zur
entwicklung
vielsei@@
son@@
zeigt
ta@@
näher
gebrauchsfertig
hängen
eisenbahnsystemen
le
one
detaillierten
bei@@
ssel
gesundheit
herausnehmbare
problemloses
seitliche
sonnenschutz
schreibtischplatte
obere
geschirrserie
entspannte
sammel@@
verzieren
mobiltelefon
zwischenschicht
figurformende
stahl@@
oberteil
stepp@@
vorn
robu@@
ausgezeichnet
spielteppich
aufklebern
nu@@
waschmaschine
fiel
entstehen
kalten
schneide@@
feuchtigkeitsspeicher@@
riemen
modisches
chino
richtig
&@@
klebt
hne@@
edlen
kreppstoff
leuchters
verknitterten
findet
ume
gehobene
griffige
langarm
sierte
tter@@
gepflegte
stapelbar
schreib
weist
kontakt
naturgetreue
fang
bo@@
rahmen@@
matter
verwahrung
jemand
karo@@
durchgefärbtes
zusammenklappbar
fach
um
welt
beut@@
denen
dünn@@
edelstahl
maserung
untergestell
spiegelschrank
anderes
120
esstischen
latexrückseite
di@@
gewicht@@
wärmer
dunkelt
sportlichen
aufbewahren
mikrofaserstoff
fließenden
pfen
flaschen@@
federnder
airdots
usb
haus@@
sanften
einlage
che@@
topfs
park@@
mehr
beispiel
beer@@
linie
kompaktes
kurz@@
messerklingen
umfa@@
passepartout
angenehme
frottee
übergänge
trocknergeeignet.nicht
ursprünglichen
geschenken
belastung
torte
sachen
pin@@
wenden
strümpfe
mon@@
lecker
spiel@@
wickel@@
nahtverarbeitung
schöne
steppnähte
konsole
zwickel
kunststoffreiniger
polstermöbel
t.nicht
halbrahmen
stielpfanne
vorbereiten
rückens
fu@@
schmal
athlei@@
charakter
aufeinander@@
reinigen.@@
vanillesoße
rich@@
seine
gleit@@
drunter
fest.@@
luxuriösem
gürtel@@
mixgetränke
tür
geripptes
separat
sonnenbrand
kreis
robusten
eingeklappt
luxus
terior
pro
oz
michel
holzfaserplatte
verlängern
ze@@
bestehen
hautsympathisch
ab
planen
stufenlos
unterbr@@
ingwernote
wachsen
kapuze
energiekosten
erhöhter
vorgewaschenem
ladestation
kin@@
champagner
reichweite
kindliche
anbauelement
einstell@@
muss
geometrische
anbrennen
wolle
einschieben
richtungen
rändern
neuem
reste
besondere
disney
rounder
federkonstruktion
am
ft
stopper
mod@@
box
kleinkram
beweglich
erscheinen
vergrößern
sichtweite
bahn@@
bilder@@
3er
kompakter
unregelmäßiger
abspülen
mindern
urlaubs
vanadium
bedeu@@
kakao
handarbeit
blen@@
aufgefrischt
lichkeit
marin@@
diversen
noch
hautfreund@@
söderhamn
zusammen@@
ausgereiftes
(
zaubern
attraktiver
gessen
wi@@
koordination
groß
kurbel
zusammenklappen
lin@@
mman@@
rutsch@@
!
knöpft
rei@@
innenbeutel
handtuchs
darüberziehen
schminken
stützend
maßein@@
bestän@@
stütz@@
wippmechanismus
runden
isolierende
legerem
wasser@@
luf@@
ungesättigten
stilvollen
jederzeit
dünnem
knöpfe
fantasiewelt
gleichmäßiges
zulaufende
nd
glühlampen
spitzendetails
rasieren
bezugs
unterstützen
richten
kontraste
fü@@
nebeneinander
verteilung
wandhaken
fettsäuren
reis
jahrelan@@
einzelstück
drei
gefü@@
indem
den@@
electronic
mercerisierter
schritt
verwenden
magneten
hobby@@
12
möglichkeit
sse
haltbare
jeans
ganzjähr@@
wasch@@
feuchttücher
fußbodenheizung
papierqualität
schraube
knu@@
sitzplatz
schutz
2er-@@
anatomisch
itäten
umstellen
handtuch
spülmaschinen@@
größeres
bezugstaubsaugen
gewünscht
poäng
wischen
kratzer
geeignet.@@
passte
bares
ersetzen
abweisenden
polyesterfilz
ank
buch@@
rückansicht
mischung
menge
maschinenwaschbar
um@@
gemahlen@@
bezug
erhöhten
farbiges
ander@@
sseln
wurf
längere
extra
ähnlichem
sportausrüstung
by
dig
indigoblau
kratzen
leuchten
1
intensivem
pflanze
allgemeinbeleuchtung
legen
vogel@@
entlastet
6
council
zugriff
innentasche
farbü@@
fröh@@
unsichtbare
vanilleeis
handtüchern
verschieden@@
kunststof@@
4.6
eu@@
bei
hemdenstil
umweltschonende
griff@@
bereichen
linkshänder
soßen
chiffonrock
zwischendurch
vertikal
innentaschen
verwandelt
kopfteil
zubereitet
mildes
bohrlöcher
anliegende
spitzen
wachst@@
mikrowel@@
verlauf
separaten
erk@@
bet@@
man
mag@@
oberen
schrank
einsetzt
hem
rad@@
kissenbezug@@
dichtes
bro@@
entworfen
abnehmbare
lege@@
reinigen.chem
reinigen.einlaufen
fettarme
großzüg@@
pulverlackiertem
atmungsakti@@
freund
küchen
beleuchten
möbelstilen
formge@@
erfinden
gäng@@
ergänzen
batteriebetrieb
winter@@
geschaltet
te@@
liege@@
konzen@@
hafter
farbstimmung
kreislaufs
schwer
fyndig
kunststoff@@
interessante
fällt
wachstumsklima
geölt
hilft
vorrats@@
aus
selvedge
bau@@
griff
dunkelheit
weben
allnächtliche
regelmäßige
schwin@@
sitzen
fre@@
6@@
brei@@
schlü@@
metalleinsatz
cht@@
trocknende
bauklötze
yo@@
flache
spaß
sichtbarkeit
sodass
entspannten
tolle
fasern
figur
feldspatporzellan
liegegefühl
proteinquelle
jogger@@
unsichtbar
garnelen
zweimal
oberflächenbehandelt
wür@@
feuchtigkeitsausgleich@@
tragen
be@@
geflü@@
tischkante
betthimmel
zusammenklapp@@
dünnere
bluse
energie
baldachin
mind
ffe@@
fintorp
polyesterbezug
ihre
kt
extrafeiner
versetz@@
einander@@
vorbeugung
aquarellstil
verbessern
streusel
enkopf
flasche
svira
pal@@
tretei@@
jedes
geeignet
frotteematerial
mittel@@
verzinkt
ne@@
rutschgefahr
bodenfläche
sweatshirt
wä@@
unbehandelte
defekt
papiertüchern
dosen
skurar
dün@@
pflanzlichen
berühren
sperre
abdecken
all
backofenfest
federn
herausrutscht
mu@@
zess
schnur@@
kont@@
position
blu@@
dekorativer
heiße
garn@@
wandhalterungen
teile
widerstandsfäh@@
federhölzer
klassischem
gerade
farbwirkung
es
abdeckung
antwor@@
dickerem
gol@@
trä@@
ripp
kleines
oberschicht
fixa
puzz@@
kompakt
trocknen.@@
erhöhung
eselsohren
stung
ger
dig@@
saugfähig
verbin@@
transpor@@
organisierten
naturgetreu@@
geworden
anderem
lein
brot@@
stuhlbeine
gene
än@@
meisterwerke
ein
sa
formen
kindergröße
vielleicht
fär@@
schn@@
hochschieben
sicher@@
weib@@
feinfädige
kurzarm-design
gebonde@@
zimmer@@
dekorationsstücken
ray@@
unregelmäß@@
polsterhandwäsche
bequemlichkeit
getrunken
beine
kartoffel@@
naht
erzeugt
figuren
täg@@
unterwegs
arbeitsplatz
adret@@
dämpfen
passend
höchst
²
vielerlei
ßt
zusammen
schattenspiele
bodens
den.nicht
zier@@
ca@@
spitzenkanten
schauen
räumen
sport
schlafanzug
ten@@
sitz@@
anforderungen
fettsäure
bus@@
fla@@
pack
durstlöscher
helligkeit
könnten
rund
kabeln
bio
mahl@@
kö@@
schichten
öffnet
gewünschten
spart
eni@@
fotos
griffmaterial
geklickt
darin
back@@
herumspringt
sitzunterlage
körperform
gefahrenrisiko
geschmeidiger
reib@@
werkzeug
befeuchteten
5@@
zertifizierter
mild
stilvol@@
wunder@@
but@@
vorkommt
schiebet@@
gezahnte
nugatfüllung
optimal
kette
kältesten
ösen
feuerfeste
geschablone
übersichtliches
elastischem
dauerhaften
qu@@
wunsch
möbel@@
kratzern
herausnehm@@
bein@@
c
farbüberzug
desodorierende
wolldecke
stabilisiert
polster
leuchtenden
tendesign
stiges
kleiderstangen
taschen@@
sweathose
tee@@
nst@@
sportliches
wasser
winterzeit
pfannen@@
gilt
wandfläche
gerichtete
tbarer
verwandeln
strapazierfähiges
laptop
gegen
system
winter
ausgereifter
center
formschön
der
saison@@
neu
auftauen
gerechtes
meerret@@
abrutschen
auf
ruh@@
hosen
beständig
quir@@
bla@@
passende
hautsympathische
deko@@
of
angenehmem
gerichtet
geordnet
jerseymaterial
schicht
stoffs
herabhängt
effektives
verspiel@@
schöner
wickeln
hig
teres
kreati@@
öffentlichen
reichlicher
wohl
teppichs
ppen
sk@@
gep@@
besonderem
schmiegsamen
dichtgewebte
transparente
reinigen
ret@@
dezentes
klappern
verantwortungsvolle
shirts
außergewöhnlichen
chiffon
macht
partie
winddruck
vorsichtig
angesa@@
augen@@
skinny
kron@@
quadratische
option
gesuchtes
schaum
tischplatte
sessel
wohnzimmer
person
gepflegten
situation
stellt
lungs@@
bündchen
gefertigt
einsatz@@
schwedens
reduzier@@
heißem
ke@@
lichtstärke
4@@
sicht
materialien
du
ster@@
ständer
no@@
vorratsdosen
kreidereste
insel
kacheln
ßen
untereinander
lüftungsösen
erinnert
roggen
erhellen
gearbeitet
badezimmer@@
verändern
fühlen
plä@@
außer@@
schreiben
stanzmuster
latex@@
schubkästen
pflegeleichtes
rückgrat
unteren
leute
schma@@
weiter
hochkrempeln
sty@@
geschmeidiges
stärken
matratze
effektiv
kuscheliger
untergestells
wächst
hindurch
dazugehör@@
außer
leiter
schmiegsamkeit
taill@@
schlafkomfort
überzeugendes
feuchtigkeitsausgleichend
kauf@@
massive
unver@@
vielseitig
accessoires
natur@@
fernsehen
kerzenlicht
elastikbund
inspir@@
kabelöffnung
emaillierten
tafelmesser
breitem
vorgewaschen
dichterer
geschirrspüler
matratzen
met@@
leichteren
95
kehrt
verteilt
überarbeiteter
großzügig
innenseite
säuren
len
teppichstange
ed@@
na
höchste
blickschutz
vorgebohrten
scher
kalte
füll@@
min@@
abweisender
präsen@@
massiven
nasse
umgestellt
eigenen
rand
zugän@@
handgelenke
spezieller
einfaches
gewaschen@@
unterschiedlichen
vorräte
schnei@@
verschmutzung
platinum
denimstoff
preiselbeeren
ware
horizontal
schne@@
spuren
alltagsaktivitäten
gemüsearten
antimikrobielle
und
design
san@@
ins
unter
wäsche@@
abgerundeten
verglasten
klassische
überarbeitetes
maschen@@
einzigar@@
ober@@
streifen
bä@@
gefüll@@
windlichts
effektive
reis@@
metallrahmen
münztasche
sacks
weichgummi
einzelportionen
n
ferse
pocket
innenkissen@@
zarten
waschbeckens
wurzelgemüse
austauschen
ket@@
feststellbar
oni@@
geschmeidigkeit
verglichen
minze
sauberes
dan@@
probiotische
wipp@@
engmasch@@
eingehüllt
empf@@
treteimer
mobil
kleineren
danach
kaltes
gießen@@
waden
sor@@
verst@@
innenkissennicht
grün
ds
sitzpolster
gerichten
fairen
gepäck
fa@@
schuss
bisschen
tischplattemit
schleifpapier
scheuermittel
rattan
koordinieren
stein@@
extrastarke
unterstellen
kle@@
c.chem
hervorragend
gusseisen
mittelbalken
gekreuz@@
kunst
li@@
ra@@
schutzhülle
gerberei
fleckabweisend
passenden
fel@@
gebügelt
ro@@
nacht
reinigen.staubsaugen
schläge
lichen
trockn@@
neue
entfernen
laufen
mehreren
holzlasur
waschung
wetterfest
se
natür@@
ff@@
fußstütze
einsatz
tschaften
fest@@
do@@
handgearbeitet
vegetari@@
anpassung
ganzkörperspiegel
frisches
ich@@
nuss
aga@@
seitenbahnen
ci@@
gleichmäßigen
selbstklebenden
rollo
beitragen
ultraviolett
mode
attraktiven
dekoratives
genähte
hauch
tin
stewardship
ierte
knopf@@
struktur@@
morgen
warme
charm@@
samtig
ungswinkel
hinten
men
hi@@
chrom@@
resulta@@
etwas
talentierten
verschwinden
fernsehgerät
gleichberechtigt
was
wollstoff
odisierte
batteri@@
bettlaken
kreieren
anfeuchten.professionelle
saugfähigkeit
erhöht
polsterbuntwäsche
abweisend
trennsteg
polyetherpolsterung
schälen
gew@@
baren
zurücklehnen
ungenutzten
zeit@@
feminine
bü@@
polyesterfaser
auflageschicht
geschmeidigen
bessere
toiletten@@
personen
erlesener
platte
lang
abwischen.kleiderstange
gürtel
erem
per
servie@@
klappbare
zeiten
geringes
überzeu@@
berei@@
festen
ff
absaugen
grazil
mat@@
erhi@@
hnen
mag
kor@@
zimmerdecke
kaltschaum
oxford
teflon
reinigen.innenkissennicht
schönes
sehr
weiße
größen
kani@@
dvds
griffe
pack@@
sicherer
komfortablen
gehören
wände
höher
weite
perlmutt
regen
dä@@
form
nehmen
wärmequellen
iertem
unbedenklichem
stift
präsentiert
gewölbte
kaihara
dazwischen
preiselbeer@@
aufnehmen
2er
pfanne
gefrierschrank.spülmaschinenfest.deckel
ladevorgang
weise
innen@@
leichte
teten
lederpflegeset
char@@
leicht
wellington
mehrere
läu@@
gardinenband
unsichtbaren
kunstszene
wegpacken
geformt
optionen
formstabilität
unge@@
beidseitig
hnt
kälte@@
saftige
leichterer
abgestimmt
kräftigen
iers
kerzenhalter
wald
berühm@@
bezuglinks
geltung
büchern
wasserdichten
clevere
stilen
trocknergeeignet.@@
kontrast@@
schraub@@
pan
eleganten
aufsatz@@
busen
bewahrt
kräutern
baumwolle
bank
doppelnaht
spezielle
leichtgängiger
leist@@
möbelstück
nackenband
feinfädigen
scha@@
klare
tischer
halterung
stecker
dafür
or
geripp@@
vliesmaterial
karriere
mö@@
sol
stuhlbezug
sicht@@
top@@
rech@@
linien
fest
fingerabdrücken
eigene
moderne
zehen
aufrecht
hacken
plus
steppung
geschlossen
kör@@
kühl
sperr@@
polstermöbelserie
gegeben@@
tur@@
ausgema@@
wellige
el
untergrunds
spezielles
dufts
püree
jeden
tui
ur
stoffschirm
p
tüchern
dehnbar
c.bügeln
waschvorgänge
aubt
york
unserem
schnell@@
wärm@@
du@@
belastet
asc
unterschiedlich
umgestalten
wandhalter@@
kos@@
ys
arretieren
tropft
win@@
hol@@
run@@
indien
pflegeleichte
leichter
hose
dekorativ
kleider
melierten
freiem
bambusmaterial
lendenwirbelstütze
korbs
work@@
bodenro@@
gepack@@
vorwäsche
rundlich
down
zulaufenden
herausgenommen
zenti@@
wollmischung
wegklappen
steckern
polsterkissen
näh@@
exk@@
sekunden
schwe@@
rille
zwie@@
fol@@
waschbaren
gießenwenig
reinigende
schienen
uneingeschränkten
handwer@@
sahne@@
zwischen
laufendem
versehentlich
beweg@@
kundenfeedback
sel@@
dünn
beeren
geld
abwaschen
eckbettsofa
daunen
strumpfhosen
seitlichen
lös@@
kanne
abstauben
für
sichere
herstellungsspuren
mahlzeit
kohlenwasserstoff.innenkissen
abnutzungs@@
spi@@
normaltemperatur
klir@@
verstellbaren
innenraum
einfarbige
heimtransport
gün@@
umspielt
industries
freigeben
ßen@@
ftung
elastizität
denk@@
länger@@
kücheninsel
verstrickt
lasieren
geometrisches
sitzfläche
nachwischen.auszugschienen
ckigen
jeweilige
abe
feines
zimm@@
futter
nussbaum
unruhige
geruchshe@@
metallhalter
wiederverwertbares
ms@@
kälteren
chinostoff
zubehör@@
abschluss
be
serie
jute
desserts
entspannende
projekt
individu@@
schalotten
anfan@@
nehm@@
arbeitsplat@@
twill
tz@@
bis@@
kissenbezugbuntwäsche
jedoch
mittlerer
fit
geruchsentfernung
gedächtnis
arre@@
pop@@
entlasten
birke
kleiderstange
zweite
ierter
sicherheitsrollen
link@@
plätzchen
min
bewegungen
wickeltisch
ses
verfahrens
aufzuziehen
brauchen
feuchtigkeitsausgleich
kte
tagesbett
boden@@
körpertyp
bi@@
mehr@@
wennerwald
haken
müde
raumeindruck
poloshirt
staubfreie
nahtlos
gestreutes
türen
umgeschlagen@@
schule
ss
antihaftbeschichtung
freistehend
heller
weiter@@
kurzsocken
gargut
senkung
tra@@
zahlen
sitzkissen
ultimative
aufbewahr@@
elan@@
charakteristischen
öff@@
hochwertig
vorbehandelt
möbelbürste
wärmeisolierend
materi@@
einfachere
hosenstil
spüle
geräusch
anliegendes
leiste
erreichen
zeichneten
matratzenbezugbuntwäsche
groß@@
versuch
buche
hier
kopf
unde
ks
to@@
gebr@@
verstellen
passender
polsters
handlich
langleb@@
flauschdecke
kombination
lampen
beschichtete
selb@@
mel@@
kran@@
spektrum
utrusta
gefunden
chinohosen
bambus
regelmäßiges
rückenstütze
türfläche
zubehörteile
engen
schübe
brennzeit
dreht
schweißgeruch
deckel
sgruppe
gürteln
schlüsseln
akkus
kon@@
höhle
stige
möglich
perlen
spalier
ü@@
manuell
haarspangen
losem
urethaneinlage
tigen
quirligen
lang@@
splat@@
wirft
vitahult
umfasst
entwickel@@
plu@@
während
fi@@
tongranulat
wunderschön
haken@@
klaren
ken@@
flur
motorik
va@@
obst@@
sehvermögen
par@@
ück@@
kräuter
dekorative
schlaufe
inspiriert
stellfläche
schräge
veloursbezug
för@@
jacken@@
holzöl
sonnenliege
ist
nützliches
hellen
einer
wird
modischem
chemisch
richtbarer
außergewöhnlich
testar
leisten
konstru@@
sichtbare
waschen
sparende
trocknendem
gardinenstore
nutzen
kantendesign
frühlingszwiebeln
ssung
farbenfrohen
messergriff
liegen
ermöglichen
austrocknet
numm@@
varianten
sicherheits@@
viskoseblusen
kurzes
feucht
persönlich
ionen
echtholzfurnier
bauch
mm
delika@@
einsatzbereit
ölen
hil@@
stimmungsvoll
wir@@
übersicht@@
t.@@
putzutensilien
verstellbarer
erscheinungsbild
ink@@
220
koje
stattet
uhr
fuß@@
seifenlösung
lusi@@
herunterfallen
feminin@@
körbchen
ph
würzen
nuanc@@
ausziehbaren
si@@
flü@@
nylon@@
matratzenschutz
3
farbtöne
glaskeramikkochfeld
flamme
·
eschen@@
ketten
empfin@@
neben
tomatensoße
nylon
teller
bezugvor
herausnehmbarer
verbraucht
verschließen
wetter
mil@@
entfernen.@@
spülmittel
geriffelten
gesäumt
enn@@
körpernahe
bundweite
kleiderschrank
überflüssig
versetzbarer
hei@@
behag@@
chtem
bad
kern
ausgearbeiteten
schlag
gganäs
kli@@
schuhen
rückseitig
baumwoll@@
temperaturausgleichendes
ständiges
spei@@
graue
backen
lichtdurch@@
bürst@@
metall@@
körbe
feinmotorik
prima
ineinander@@
relief@@
geschen@@
selbstkleben@@
schläfchen
vor
bürste
gravad
lernen
seltener
kratz@@
pfeiler
hochwertigen
waschbarer
wiederzufinden
vertiefungen
weg@@
schuhe
nisse
ausziehtisch
vielen
kabel
fußböden
erleichtern
lasur
strickstruktur
messingfarben
stücke
service
geschützt
stand
eiswür@@
klar
dichtgewebter
abfall
dienen
herausnehmbaren
alle
kapuzen@@
schlitz
knuspriger
massivholzoberfläche
machens
häufigem
tes
egal
komplett
suppe
gradliniges
strand
magnetleiste
lit@@
höchsttemperatur
ribbed
mbu@@
24
zusatzplatte
reiche
knoblauchzehen
legeren
geht
heimel@@
str@@
ären
le-@@
körpers
formstabil
technologien
hochglanzlack
gleitschutz
alltagsgarderobe
biegsam@@
belieb@@
spro@@
ihrem
allgemein
hes
da@@
vier
verwahren
abnehmbaren
genuss
seiten@@
farbverlauf
uchen
bereich
meer@@
reflex@@
wunderbar
alles
unerwünschten
jacquardgewebe
ung
unangenehme
ärmelenden
zauber@@
bankkorpus
frühstück
mischbatterie
kunststoffkappen
stufenloser
leichtes
wohn@@
leuchtenfuß
bratpfanne
siphons
sieht
zweig
langsam
vorhandenem
tafel
maskulinen
teelicht
zulauf@@
sch@@
ingen
figurnahem
dickeren
leichten
schließend
kaltschaumpolster
eine
eig@@
geformter
ve@@
e27@@
hem@@
glatterer
stör@@
gerundet
isol@@
rts
eno@@
hinzu@@
genen
revolution@@
9
pfe
baumwollhemd
feststellbaren
glatten
nichts
reißverschlusses
zurück@@
tiefer@@
tischspiegel
select
tischende
backofen
de@@
beschläge
mmi@@
regulierung
vorne
gerundeten
wichtiger
plane
schliff
baumwollgarn
seitenstreben
hö@@
elt
abweisen@@
tönen
schnappbeschläge
außergewöhnliche
aufzubewahren
schiefer@@
armlehnenpaar
ang
mer
sortiment
sammler@@
chil@@
stifte
komp@@
heits@@
sitzelement
d
besteck@@
post
breiten
fter
stimmungsvolles
gliche
optik
polstermöbeln
märchen@@
arbeit
rauch@@
details
récamiere
geb@@
produkte
kochen
tafellappen
gerundete
herkunft
als
wiederholtem
feuchtigkeitsausgleichendem
memoryschaumkern
ärmeln
gläsern
weihnach@@
möglichst
femininere
kästen
silikon@@
cre@@
har@@
wärmstem
gst
spülmaschinenfest
gesetzt
gemusterten
ausschnitten
allen
dillsoße
austauschbürste
abriebfester
vat@@
beln
kräuseln
con@@
gruppe
ruhe
kranzleiste
durch@@
kinderhaut
flor
nötig
schafft
gere@@
rands
verdunkelnde
arb@@
dr@@
bewegungsmelder
lig@@
inc
dunkeln
durchschlag
maschinen@@
schmutzabweisende
vergrößerungsspiegel
arbeit@@
frostglas
kameraden
ma@@
laden
mul@@
perkal
umge@@
zahlreiche
spielzeug
zubehör
binde@@
bli@@
teilen
ün@@
jährlich
rutschen
stehend
kleiner
tiges
erstaun@@
4
ko@@
loo@@
mmen@@
filigranmuster
abschütten
unnötig
anrühren
cke
überraschungen
selbstklebender
flauschiger
gest@@
dickes
pflanzlich
anzug
arm
per@@
davon
ineinander
wechsel@@
superwarm
regalhaken
haut
herstellen
garten
schultergurte
meliertes
vorhandenen
schrank@@
geschichten
innen
ers
dampfventil
gepflegt
mädchen@@
dünne
taschenfederkern
punkt
halt@@
abperlen
bild@@
uv
x1@@
geräuch@@
schrittbereich
ergibt
gestells
taschen
entwickeln
flure
jogging@@
lei@@
seitenwänden
dünner
kurzen
sieren
kuchen
geräumige
wollteppich
abge@@
geschenktüten
subtilen
nachwischen.@@
dübel
ters
at
schokola@@
fruchtfülle
hilfe
g
falt
wenn
schmeichelnde
dunkel
großzügigen
packung
wal@@
reich@@
basic
höhenverstellbare
sorgen
fernseh@@
endes
antrieb
daheim
einblick
bestes
kleinstem
tlich
furnier
tig@@
einsetz@@
röcken
esstisch
strickpullover
dass
beiliegen@@
kohlensäurehaltige
west
schrauber
mechanik
hochwertiges
unterhemd
rundhalsausschnitt
ausschalten
aufsatz
femininen
textilhersteller
verschiedensten
geschnittener
dämpf@@
ot@@
tage
tik
eckbereich
hochheben
scharnier
eingeölt
mitteln
net
hrungsdimmer
kurze
gaben
versehentliches
effekt@@
rutschbeschichtung
holzoberfläche
konzentrationsvermögen
gestrei@@
offener
gardinenlagen
wasserdichte
gestalten
tarnmuster
vollnarbenleder
mädchenhafteren
umstands
bestå
pflanz@@
schri@@
hafte
verdichtetem
steht
dreifache
ord@@
20-mal
he@@
nylonfutter
voneinander
zuhause
flauschige
wendung
feuchtem
komplet@@
we@@
melaminbeschichtete
effe@@
ll@@
teegedecke
essenzubereiten
schließt
ka
?
gekürzt
blumenmuster
weichheit
zusätze
gere
hängenden
heiß@@
wecker
entspann@@
kreative
entworfenen
ausrichten
beleuchtet
scharf
ur@@
cell
2.4
geräumigen
wärmeabgabe
vorrä@@
kaffee@@
fensterrahmen
flaschenbord
gemisch@@
gleichen
erinn@@
stilvollem
hochrutscht
einfrieren
bezü@@
schaffen
erneuten
pass
über
etagere
vermeidet
erd@@
hinter@@
schützt
ucht
che
kürzen
transport
mä@@
liegend
dekoration
säure@@
klingen
eckbettsofagestell
element
spiegel
lüftungsgit@@
empfehlen
mikrowellengeräte
breiter
einlage@@
vorhandene
kzeug
farbe
trennung
hle
saf@@
aufgehängt
warmes
geripptem
h
ergonomisch
edle
verlänger@@
ts@@
temperaturausgleichend
revolutionären
uren
griffig
ser
speziellen
reinigen.gestellmit
hiphug@@
feine
baumwollbezug
wenig
gleichermaßen
kommt
üren
grill@@
staubzusaugen
fr@@
mariniert
kleinem
schmutzabweisenden
finger@@
bar
feln
unterschrift
deutlich
outfits
fein@@
dient
jörn
me@@
jeder
anti
harmoniert
klein
verchromtes
reguliert
iere
ken
trocknet
unvergleichlichen
uns
freies
zwiebeln
haltbarkeit
bequeme
knopf
koch@@
wahren
ssen@@
frottee@@
weiteren
wahlweise
schmalem
vorra@@
geschmack@@
zugäng@@
e14.@@
fußbodenbelag
gleichgewicht
glasbehälter
barhocker
starker
rie@@
baby
weiten
färbt
zel@@
8@@
ing@@
markiert
innovation
kurzärmeliger
stempel
untere
guten
leicht@@
schmaleren
potpourri
tunnelsaum
tiefem
farbbeständigkeit
brennt
arms
gerösteter
jo@@
waschmaschinenfest
wollflor
rahmen
matratzen@@
löschen
zeug
lieben
behäl@@
damen
ange@@
feuchtigkeitsableitende
kiefer
gefaltet
elastisch
x@@
möbelshampoo
ornamen@@
gi@@
mah
miniatur@@
zubereiten
ire
schleife
pfannenboden
unseren
lockeren
sitzt
badematte
wasserabweisende
zitrone
gespült
trag@@
beult
luftschlitz
dehnbare
kräftigem
beid@@
rein@@
dir
glasrundung
lu@@
kontrast
anordnen
dauerhaft
markan@@
fußboden
mi@@
gardinenstange
unterarme
lackierte
gewicht
­
umen
textil
nudeln
gu@@
hau@@
spielsachen
vorzubeugen.@@
schem
teppichreinigung
verwendet
gel@@
kuschelt
artikeln
tuben
kno@@
vorteilhaf@@
nebel
haltung
gt
uchen@@
abgesch@@
hausgemachte
juwel
niederschlag
widerstand
topaktuellen
kaltschaum@@
feinwäsche
sonneneinstrahlung
effekte
nung@@
verschlie@@
anpassen
schnapp
unübertro@@
auszugschienen
schnur
armlehne
stelle
anhängen
desig@@
kelchform
mikrofaser
umwelteinfluss
hängt
joseph
ideen
oben
drüberziehen
or@@
ls
kunststoff
winddichte
seitentei@@
hlen
automa@@
outfit
untergarn
k@@
schwedische
schulter@@
vorgebohrte
bare
dichter
nackenbereich
söckchen
eck@@
waffelstruktur
gartenutensilien
trocknender
semi@@
mittelhohe
regulieren
tragegefühl
sonnenschirmfuß
bal@@
bun@@
lichts
leb@@
gleichbleibender
erhöhte
friert
halter
entfernen.vor
gefal@@
tiger
bild
gratulation
blauen
aufhängung
fenster
kalklöser
erfrischungsgetränk
waschbeckenschr
zept
kunsthandwerker
seifenlauge.mit
on@@
stickerei
ielen
drehstuhl
produ@@
hu@@
of@@
monate
farbkontraste
wiederfinden
einzel
ves
gte
flan@@
kombiniert
dieser
widerstands@@
schutzlack
sorgfältig
maxi@@
spiel
leichtgängige
voll@@
deutliche
gefärbten
aufzustellen
sicherheit
richtung
ikea
äußerst
dämm@@
strukturierte
spiegeln
verpackung
töpfchen
eschenfurnier
beistelltisch
abwischen.@@
marine@@
sowie
retroshorts
bügeln
cheln
splatte
geschwister
umgang
kleiderbügel@@
・
motiven
steuern
sirupherstellung
hängend
aroma
bedeutet
besonderen
nützlich
gestell@@
polyesterfüllung
verbreitet
fantasie
gestell
verflüchtigt
lesel@@
schranktür
rechtecken
cargo
schulaufgaben
fester
schokolade
überzug
halsausschnitt
weltkarte
alkohol
küh@@
kordelzug
zeichnet
kondenswasser
oberteilen
mals
ihn
rustikal
kunsthandwerkern
rechten
komfortabel
milch@@
gewaschen
starkes
trocknen.staubsaugen
schrammen
ut
einschlag
rippstrick@@
sobald
werke
hals
frau
sitzgelegenheit
steckt
winkel
kompakte
heit
entsteht
taschenschirm
aufstehen
abwischen
hellblau
schaut
r
schubladen@@
glasdeckels
küche
kivik
stehen
lüftungs@@
verstärkte
glögg
eher
hab@@
unverwechselbar
dende
etwa
la
illustrationen
trennen
®
übertöpfe
heißen
dazu
technologie
zwei@@
ofen
objekte
absorb
harmonischen
schultergu@@
waschen@@
zerkleinern
hinsetzen
puppen@@
gewe@@
fläche
2@@
zahlreichen
beim
warmer
lagen
nern
mitwachsendes
legespiel
knittern
außen
ad@@
designdetails
waffelmuster
side@@
modischer
gesündere
schrägen
normalen
.600
nor@@
standard
neues
überwurf
mark@@
verfügung
fleckabweisenden
wiederholt
ba@@
sweatstoff
krabbencocktail
eingebau@@
tee
unterbringt
einsätze
rolle
fürs
schnitt
frü@@
gesch@@
trocknergeeignet.bügeln
lebendiges
taillierte
fe
gebondete
synthetikfasern
größen@@
selbstentladerate
von
doppel@@
150
gleiten
sti@@
flanellhemd
paar
sticks
sparend
fun@@
80
fußgeruch
begrenz@@
blockiert
liege
sauberzuhalten
taille
ausziehbare
dens
schli@@
ihrer
ckten
bügeln.chem
körpergröße
geräu@@
akzent@@
satz
geleisen
verdeckter
tel
zugänglich
austausch@@
charak@@
dicht
organisieren
eigen@@
würde
sche
schwer@@
schnappscharniere
notwendig
collagen
skin
schrägstellen
zusammenfügen
lachs
abgeschliffen
jahreszeit
handtasche
decke
fließende
c.bezug
bügeln.nicht
komfortmaterial
hakenleiste
kindersicher
stuhlnicht
auswahl
puzzle@@
akti@@
vertragen
stangen
individuelle
schlichtem
meister@@
stapel@@
will
rundem
armlehn@@
reißen
system@@
mittlere
kartons
.bügeln
gleiter
10
tabletts
frühlings@@
leuchtquellen
dchen
innere
streichen
siphon
schal@@
angebauter
hübsche
gezieltes
eleganter
tragegewebe
übersicht
bür@@
boxershorts
ausgezeichneter
wegnehmen
ziehen
schütteln
erhältlich
stra@@
versetzbar
pfefferkuchen
schneidgut
waschmaschinenfester
com
durchdacht
fensterbank
verdunkeln
stell
schaummatratze
py@@
gleichzeitiges
u
reise@@
ille
bänder
holzsommermöbel
matratzenauflagebuntwäsche
abtrocknen
poin@@
schrittnaht
klein@@
sau@@
stühle
handschuhen
schutzschicht
schalten
schwerem
durchda@@
unikat
märchenstunde
schiene
benutzung
hochwertige
schmalste
klettb@@
tv
licheren
hausgema@@
taillenhöhe
montieren
einrahmen
lichteinfall
kkol@@
rt
geladen
süß@@
pa@@
buntwäsche
blockierten
ie
schnitte
szeit
geringeren
pflegeleicht
neutrales
lieblingsmotive
damit
wollähnliche
.@@
anhaftenden
aufgerauter
hackfleischbällchen
an@@
servierform
losen
regulärer
det
marine
spar@@
verbrauchen
unangenehmen
chino@@
rip@@
anstreichen
niedrig
laminatabdeckplatten
fisch
textilreinigungsmittel
individuell
stoßfestem
ess
dekoschale
schwi@@
knopfdruck
kaltschaumpolsterung
letz@@
nussbaumholz
bon@@
nur
dünnen
stehender
schließende
fischzucht
nahtlosen
ard
sku@@
gkeit
geräte
papier
genäh@@
ss@@
kreide@@
rillen
gerichtetes
hü@@
trägertop
detail@@
ausgestell@@
regal
garderobenständer
car@@
la@@
chen@@
hts
verkühlung
sanfte
webereien
zer
weich
bändern
meter
spitzenmuster
vereint
haar
kerze
tv-zubehör
langstapelige
kuscheln
oft
geräuschloses
piqué
tenband
zuvor
verstärkter
früh@@
aller@@
erstklassigen
is@@
räume
knie
modische
gemindert
merino
just@@
wan@@
sparen
ultra@@
chemikalien
mitnahme
freizeitlooks
unbeschwert
geschenk@@
lässigeren
induktionskochfeld
fall@@
satin@@
bt
ie@@
filz
schreibtische
hoben
ebenfalls
warm@@
vorteilhaft
vorkommenden
recyclingpapier
ität
länge
separate
geschmack
misch
charme
empfindliche
wichtiges
v@@
babyhaut
kompletten
drehen
lem
portionen
vollkorngetreide
funktionen
hockerbezug
hm@@
jede
bequemes
schläfer
salaten
boxen
mit
fruchtiger
kinderhände
öpfe
akzentfarbe
hochschrank
höchster
metallnetztüren
einsatzfähig
weltberühm@@
flächen
kurzer
hergestellt
schiebetürdämpfer
dehnung
backunterlage
gsam@@
szene
bewegt
ebro@@
ent@@
sonnenschirm
bh
gelassen
weichen
wirds
seidig
damenhose
darunter
ei@@
misch@@
mittelpunkt
reiß@@
rollenspielen
meer
krab@@
spritz@@
schaukelstuhl
geschichte
weichere
minimalen
lätzchens
schen
sche@@
dehnbarerer
eien
abtötet
armausschnitte
stahlwolle
c.separat
keinen
tu@@
behälter
pfeff@@
nachwischen.gestell
genutzt
gateway
wäscheberge
vorzu@@
häuser
faserverlust
halblange
leg@@
leuchttüren
waschbar.buntwäsche
kissenschoner
creme
koffers
einbuchtungen
saugt
frame
17
gewünschte
zwischenmahlzeit
weg
nah
schwenk@@
tete
lithium
offene
aktu@@
nten
schwitzen
nahtband
motive
bzw
verfein@@
tischbock
wärmeverteilung
gardinenschienen
sed
tablett
dimmen
ide@@
supi@@
eindringt
künst@@
aufs
konturen
eckelement
kohlenwasserstoff
draht@@
.
aub@@
erwei@@
trainiert
zuge@@
op@@
verdecktes
strickmuster
wollen
iertes
hierauf
saugfähiges
måla
ähn@@
telef@@
tasche
famil@@
lässt
backofen@@
zusammenarbeit
kaffeestunde
kuschelige
bequemen
extrem
horizontale
ven@@
flu@@
frischen
vlie@@
verschieden
rückseite
dimension@@
halt
drinnen
ablagen
mädchenhaf@@
vorder
zen@@
gs
mitte
strauß
breitere
pullovers
stuhlrücken
the@@
hemd
max
klarem
venti@@
schlaufen
hrt
stu@@
feinere
moderni@@
schubladen
herausnehmen
business
erzielen
garderobe
©
verchromte
veget@@
gefrierschrank
badezimmer
rosa
fer@@
perfekte
äun@@
streu@@
anteil
visuelle
nahezu
klappen
gefülltes
wear
kissens
arbeitsbedingungen
aufgestellt
regal@@
pfannen
jacke
wattierung
scheiben
elastik@@
verrutscht
frucht
nacherzählen
daunen@@
spieler
sä@@
gel
mal@@
stuhlgestell
ofen@@
latt@@
feuer@@
aufbewahrungskombinationen
haube
eres
seh@@
gleitschienen
mix@@
nussbaumfurnier
elegantem
wahl
ar
geschnitten@@
pun@@
reinigungsmittel
einge@@
stear@@
überzeugen@@
schiebetüren
verwendung
stad@@
hängeleuchte
rahm@@
mittels
ausgewogene
kollektion
nachwischen
finger
unser
rayon
würstchen
wähle
kar@@
perle
nachahmen
einpassen
ren
einfache
gummiüberzug
ä
kombinierbar
über@@
racerback-design
länger
modernen
dreiviertelärmel
hier@@
außenseite
fließender
body
variabel
bezugbügeln
leider
induktions@@
daumenlöchern
tä@@
mengen
fächergröße
tags@@
zahn@@
senkrecht
anspruch
kombinationsmöglichkeiten
ring@@
jahreszeiten
ändern
bau
smart
os
verschwindet
ien
vermeiden
masch@@
umklappbare
trotzdem
balkon
y@@
lon
spezialbehandlung
fell
rutschfester
5
7
sauberen
trockene
vordere
einmontiert
wein
stilvolle
kurz
maskulin@@
anzubringen
exklusive
wirkungsvolle
auf@@
soll
zukunft
100
vorgebohrt
steh@@
offenen
schreibtisch
ield
ssin@@
gsam
weberei
bra@@
essensreste
glatt
höch@@
staben
gefühl
uhren
fal@@
transportieren
rett
sogar
viskose
hr@@
armlehnen
essen@@
pflegt
isolierend
mitnehmen
spiegel@@
stau@@
ges
aktualisiert
mädchen
enthalten
unbeschwerten
riesen@@
modernes
zugschnur
interessan@@
beinausschnitten
weihnachtsbaum
robust
klar@@
justierbar
töpfe
schaft
table@@
pu@@
schla@@
eindrücke
baby@@
hn
co@@
einfall
anhaf@@
verringern
k
seife
verwenden.nicht
arbeitete
temperaturen
kragen
gericht
richtiger
computer@@
los
dämpfern
tzt
komfortmerkmale
eh@@
aucht
schwedischer
luss@@
benö@@
gewürze
stabilen
andere
zügen
druck
gelbe
gang
kelch
nahtkante
viele
phtalate
leinens
fahr@@
schließ@@
klapptisch
unebenem
best@@
dezenten
wärmeregulierung
unter@@
jacken
tomaten
schloss
verstaut
flachen
klassischer
feiner
bremsmechanismus
netz
bestens
entla@@
faser@@
fussel@@
leder
drücke
mäß@@
ausgeprägten
dreiviertelärmeln
sondern
jerseybezug
sofas
reich
knusprig
puppen
spezi@@
tauchen
lasiert
vorgewaschen@@
arme
lä@@
hin
stufe
mobiltelefone
schmeichel@@
angebrachte
bringen
zi@@
benötigen
erz@@
lustigen
ling@@
perso@@
verfügt
netzfutter
standardkleiderbügel
hindern
gruß
portion
aufge@@
leggings
dehnbarkeit
gemütlicher
in
wiedergewonnenem
ordentliches
rückwärtige
diverse
säu@@
problemlos
ausdruck
herausrutschen
rot
edlem
bezug@@
fernbedienung
drahtnetz
farbnuancen
figurnahes
netzgewebe
netztaschen
fischsuppe
inhalts
ordnung
angeschlossen
cut
schä@@
aufeinander
zusatzplatten
kräusel@@
werden
muskat
+
diesem
geräuschdämmend
sp@@
leiten
handwerkscharakter
höhenregulierung
tagesdecke
untersetzer
fusselrolle
exemplar
griffen
ender
exotischen
ene
stück@@
braus@@
ach
bewegen
verstell@@
gelagert
lage@@
bügelloses
fer
ladung
aufgrund
in@@
beigepackt
luftiger
ausgewähl@@
rechts
org
ster
kälter
wartungs@@
wer
händen
lichteffekte
f@@
aufhängen
morgens
wandschienen
aus@@
gentle
werden.gestell
buch
unifarben
ze
tung
schwung
synthetikkissen
ssel@@
verursachen
icht
kran
ganz
windlicht
nung
arbeitsfläche
zusammenge@@
seifenlauge
spitzengardinen
modi@@
exakte
glänzend
reihe
lamp@@
kappen
watte
mikrometer
stahldraht
ultra
natürlich
schen@@
doppelsei@@
mitt@@
ursprungs@@
kuschelig
leselicht
bettwäsche
hut@@
e@@
tunnel@@
verschen@@
baumwoll
tüllrock
yb@@
arbeits@@
zusammengeschoben
körperna@@
herrscht
dimensionierte
leitet
gebäck
integrierte
merin@@
wählt
nach@@
wirkenden
7@@
farbenfro@@
inlett
verkratzt
harten
schnellstmöglich
stet
wasch
sorti@@
bund@@
kabelloses
kein
gten
aspekt
umplatziert
abfalltrennung
füllige
aufwärmens
biegsam
ledergürtel
akzente
wellenschliff
stel
garanti@@
bilden
bis
pflege@@
ons@@
körperwärme
este
typ
breiteres
resultat
beleuchtung
halb
mobiltelef@@
eignen
www
umklappbarem
einzel@@
karosteppung
jedem
geschirrs
außenkanten
stopp@@
lange
stellen
mit@@
weicheres
vollstän@@
bilder
lumen
verschiedenen
bakterien
feminin
befestigt
unfugmachen
coolen
belag
re
schm@@
kaschmir
rost@@
sichs
strick
hr
ku@@
entenfedern
4.8
dern
seil
temperatur@@
schweiß@@
trocken@@
gesammelt
vielseitigen
sches
t-shirt
unterwäsche
industrie@@
herren@@
köpfe
verringert
ck
motiv
halbtransparenter
stützende
frotteestoff
entspannt
bezugbuntwäsche
jährigen
klötzchen
es@@
nassem
aromadichten
fä@@
baumwollgewebe
atmungsaktivität
uch
verarbeitung
strick@@
rü@@
karte
behandelt
verbergen
abstützen
ausreichenden
aufgewärmt
erhöhen
vorhanden@@
erneut
verträgt
schweiß
kragen@@
stabilität
drunterziehen
gestellreinigung
lackieren
licher
ver@@
feuchten
gebürstet
komfortables
25
schritt@@
chten
pflege
pulverlack@@
schreib@@
wasserabweisend
genügt
dien@@
naht@@
änderst
schlafen
engem
freien
saft
ex
nutzt
metalldetail
schubladenseite
hat
home
å@@
regale
pink
pflegeetikett
kt@@
pp@@
gemacht
wo
keramischen
schmalen
sneakers
namen
einlegeböden
unterscheiden
beilage
bel@@
zen
vom
klassi@@
bereiten
bedingungen
lebens@@
vielfalt
ter
te
jahr
kinder@@
reinigen.hängend
teelichthalter
stuhlbügeln
wärmeleitfähigkeit
verspielt
gegerbtes
ummöblieren
dieses
auge
spannbettlaken
angenehmer
wachs
schockgefrostet
typischen
tragekomfort
reisekoffer
normale
gummizug
haut@@
topfboden
chern
glatter
trenn@@
volles
tiefere
drahtkorb
halters
atmungsaktive
maschenstruktur
grillbesteck
er-sofa
gelegt
klettband
kindgerechter
einzeln
behältern
tiefer
dekorationen
einladende
bin@@
tageslicht
längeren
saubere
taschenfedern
cl@@
bettbezug
staub@@
schlaf
persönliche
ssi@@
besonder@@
geschlossene
schiebegardinen
praktischer
brust@@
entfernen.professionelle
gekauft
gummi
ärmel
ideal
fälligen
compu@@
süß
ra
fähig
ende
fronten
boholmen
möbelstücks
korb@@
uni@@
aluminium@@
klingenschutz
elements
heattech
men@@
himbeeren
kochvorgangs
unge
wirkt
aufla@@
eines
wurden
neben@@
zwischen@@
dabeihaben
st
rücklauf
schneidebrett
inhalt
lebensdauer
vorsichtiges
pur
elastischer
safrangebäck
elektro@@
seitentaschen
netzdrahtkorb
gepolsterten
vackert
letzten
e
wand@@
verbindungspfosten
len@@
kleid
kinderzimmer
öl
merkmalen
ecken
geschlossenen
paspel@@
pilzen
weltbekannten
taschenfederung
schön@@
knopfleiste
gän@@
laufe
geschmeidig
p@@
ringen
stützen
extremer
alien
textilbuntwäsche
zähneputzen
markante
überarbeitet
strickjacke
verdeck
kaka@@
spot
ley
anfang
il@@
frischem
ve
waschkommode
ak@@
die@@
socken
ermöglicht
feuchte
ges@@
kosmetik
auch
beutel
nähte
giftfrei
leichtere
häu@@
blickfang
verzinkter
zugleich
o@@
gefalteter
soft
noppen
problem
gießenmäßig
einstellen
zusammensitzt
sof@@
zierde
reichen
light
zentimeter
luxuriöse
besch@@
kühler
inbusschlüssel
bezugchem
lichtspiele
gerippte
kaschmirs
überblick
geräten
empfohlen
verschluss@@
klamm@@
thi@@
tys
kabelsammler
denken
eis
trink@@
de
dekostücke
it@@
nähten
plaid
aufbewahrungskombination
van@@
muster
bar@@
wandregal
sanftes
haar@@
netz@@
waschbare
vier@@
handtücher
strumpf@@
komfort@@
mittl@@
tten
setz@@
ganzjährig
han@@
blei@@
us
soße
breit
abdeckplatte
angesagte
usw
strom
digkeit
om@@
sinne
enthält
kontrastfarben@@
wandbeleuchtung
gewichts
arbeitszimmer
topf
funktionshose
leinen
zählen
ergänzt
ruck@@
körper
vorder@@
größenanpassung
wasserverbrauch
hän@@
mädchenhafter
glasfront
stimm@@
getauchten
0ern
sommermöbel
26
knitterarm
kuschelhöhle
fäl@@
einfach
staubwedel
meisten
leinwand
gereinigt
kü@@
knie@@
magnet@@
rutschfestes
trifft
kochgerät
weihnachten
kusch@@
elektroinstallation
wirkungsvoll
geschirr
tank
zirkulieren
wäschesäcke
kartoffelpüree
frischer
körben
strahlt
frisch
merinowolle
dun@@
schlafklima
erfüllt
en.professionelle
kommode
60
memoryschaumfüllung
ladegeräten
persönlichem
tisch@@
vermieden
hingestellt
super@@
dy@@
hl
under
edelstahl@@
schuhregal
aufwärmen
unübertroffen
woll@@
blickdicht
schnell
.400
tägliches
blusen
ladegerät
zierter
biesenfalten
entweder
weicheren
uni
gedächtnistraining
drucköffners
volumen
maschinenwaschbaren
höhen
premium
rer
indigoblau@@
heranwachsenden
geändert
sprü@@
kapsel@@
antihaft@@
tischbein
natürliches
schran@@
dressing
parka
behaglich
ha@@
rundmit
maß
liter
zauber
spitze
infolge
versetzbarem
erhalten
sneakern
lyocell
staubsaugen
frei
teelichter
verschieben
schimmert
wärmeren
anderen
utz
verfeinert
umwelt
lieblingsfarbe
gerüche
kamerad
bleichen.nicht
vordertaschen
induktionsherd
esstische
stabilem
tischgröße
können
beinform
spielsteuerungen
gedimmte
saum
griffiges
reguläre
ore
sal@@
geschmackvolle
kl@@
torten
säure
schlie@@
mikrofaserfüllung
sichtbar
mini
leichtem
hochwertigeren
weißem
ür
zusätzlichen
jachten
flächendeckenden
flie@@
ant@@
öpfen
bügel@@
gebürsteter
x
überflüssi@@
aufger@@
stö@@
verchrom@@
darf
gehör
ts
sitzkomfort
höheren
eingefaltet
vermindert
i
