<unk>
<s>
</s>
decide
casters
tanned
quite
u
adhesive
tracks
around
ou@@
c.storage
bow
cr@@
reheating
crib
um
umbrellas
col@@
meat
windy
quickly
cartridge
contouring
flame
sheeting
studi@@
tching
basics
handles
ty
hur@@
choice
require
seats
nets
durable
tical
version
hy@@
organizing
lists
bestå
coated
plastic@@
spacing
ents
harm
blouse
compact
saucer
classic
usb
volu@@
airing
film
railway
puzzle
tas@@
brush
grin@@
pull-out
now
repellent
inspired
pul@@
baked
waffles
switched
summer
coverwipe
toasted
consume
on@@
spla@@
flatter@@
en@@
accommodates
cuddle
ess
mon@@
heavily
plain
fac@@
recommend
pi@@
4.5
cold
expec@@
bleach.tumble
boat
cards
&apos;t
charge
time
frames
humidity
dar@@
prou@@
retaining
20@@
cutting
fats
ggle
microbial
toxic
head
every
useplace
cord
trichloroethylene
framewipe
fine
ades
accented
rinse
bergamot
wiping
spotlights
chenille
strong
ght@@
continu@@
together
present
shawls
fasten
keys
tch
ars
mea@@
woo@@
outstanding
evol@@
sible
wet.shrinkage
calen@@
ribs
cup
rounded
layering
fashioned
tins
nyboda
he@@
out.sectional
neighborhood
tiny
wire
baghand
submerge
cloth.wipe
supplies
x
raw
metalwipe
leatherfor
mesh
properties
side.do
no@@
recommended.dry
office
grinders
used
house
daily
stain
knobs
sturdi@@
ju@@
slides
serene
adding
-style
bath@@
combination
.wipe
stretches
traditional
barely
adjustment
growing
clean.@@
little
mobile
fibers
ft
behandla
adjusting
glasswipe
bre@@
freedom
distribute
itself
striped
performance
slept
clips
plenty
crewneck
loveseat
completely
countertop
140
%
vanadium
trailer
fairly
sk@@
cooktop.suitable
touch
ground
sing
member
blen@@
distributed
refill
feature
creating
open@@
hea@@
discs
ul@@
smooth@@
(
rain
memor@@
knee
tags
made
cloth.protect
textilemachine
nyc
ease
!
ar@@
twi@@
on
innovations
precise
stuva
christophe
grill
sizes
bedspread
uneven
sustaining
dine
cozy
tights
dampen
athleisure
retained
ela@@
wrapped
burn
yoga
works
res
airdots
slippers
ex@@
emi@@
chests
stacking
chiffon
falling
furniture
snaps
vertically
airtight
concentrated
seconds
weather
dry.do
cloth.extendable
dable
piping
beats
eliminate
bed
think
den@@
crew@@
nee@@
artwork
sofa
taste
cushions
than
bustline
inner
ry
optional
processing
slice
sold
stearin
dinnerware
jeans
whole
cycle.do
grained
upholstery
live
ankles
clip
rocking
curved
requirements
due
folded
cookies
inviting
much
specific
logical
cases
shallots
grips
planning
vanilla
charged
valve
poäng
polo
firmly
advanced
ov@@
shatter-resistant
sweetness
ho@@
lantern
cakes
pencil
fri@@
fashion
ding
workout
met
compared
jour@@
nei@@
tops
without
effectively
t
trofast
comfort
transporting
alcohol
else
looking
utensil
crew
only
smoky
a@@
teeth
click
extra
against
suitcase
stacked
fau@@
wraps
stained
monitor
gathering
overnight
duster
luster
toy
dig
cool
swivel
shrinkage
1
teri@@
addition
ne
charm
6
henriksdal
smell
squeezed
simplify
-neck
families
switching
beacause
tcher
leng@@
rated
4.6
minutes
da@@
back
pad@@
wash@@
ten
guide
surroundings
rotating
trådfri
broken
sterilize
selec@@
drawstring
perio@@
center
eason
grilling
airflow
boxer
labels
richness
bedlinens
tosterö
rice
ran@@
behave
below
being
sure
filters
adults
indigo
man
top
pe@@
scra@@
4-seat
hearing
groups
bro@@
midsection
cally
shampoo
background
stoo@@
irregularities
daylight
stea@@
integrated
&amp;
ness
dark
half
workspace
salmon
frying
19@@
legged
thick
umb@@
softeners
double
support
dyeing
shaped
indentations
off@@
gai@@
color
guish
craw@@
music
-@@
like
shut
collecting
things
ecp
te@@
convenient
contact
sensory
combine
turns
crisp
outlet
blankets
activities
fyndig
trouser
tex@@
lish
chicken
spicy
14
ger
selvedge
mable
cloves
crispbread
sleeps
oo
colored
decorating
signature
stationary
ang@@
vivid
fre@@
6@@
ged
sions
preservatives
fits
cheek
greeting
drilled
underneath
resilient
vackert
put
gifts
masculine
maintain
beige
contain
stimu@@
sta@@
roll
id@@
era@@
alk
be@@
then@@
generous
leaves
length
removing
cks
mind
exotic
slow@@
walls
fintorp
twice
expansion
after@@
protecting
thoroughly
caramel
optical
omlopp
interesting
shelter
ward
recycling
pattern
moist
brigh@@
motor
easier
trichloroethylene.cushiondo
waistline
dressy
ab@@
withstand
knots
tings
unprotected
down@@
consumes
climate
59º
ledge
napkins
cer@@
noise
shallow
sugar
table
all
anodized
ef@@
wn
museum
starts
ster@@
mu@@
onto
italian
breathable
thers
position
known
doll
estate
shifts
accessories
curve
feeling
rye
coverdry
es
ta
documents
outline
hooks
clo@@
sitting
blueberries
individually
connec@@
slicing
b@@
scrape
drop
cool@@
han@@
fixa
bulb
veneer
led
untreated
everyone
158
distur@@
presents
help
living
protector
the@@
rights
thins
ea@@
lev@@
wa@@
ri@@
21
styling
elastic
dirty
peek
powered
percale
panel
mol@@
soapy
inser@@
embroidery
54º
zipper
hoodie
lighting
takes
presenting
candlestick
reduce
excellent
paints
normally
heart@@
wearer
social
hygienic
beech
pad
micke
needed
four
marinated
utrusta
thanks
positioning
legholes
dimmed
pocketable
denser
sat
stress
portable
removed
bill
brighten
reliable
allow
kitchenware
gger
nap
br@@
walnut
whi@@
dyed
active
laminate
ultimate
molybdenum
cu@@
remains
angled
flavor
bird
ming
stored
ca@@
imagination
avenue
ability
trestle
player
agreeable
tree
stands
ten@@
activated
sive
velour
tru@@
quicker
fla@@
ripe
directional
pack
slub
raglan
vari@@
glued
ine
wider
lets
hurt
bio
loaded
fashionable
flannel
pepper
temperature
shape
layers
wardrobe
ors
at@@
rou@@
books
lay
glare
cov@@
rebound
back@@
sink
tan@@
cheeses
decrease
leftovers
scrub
push
homemade
reflectors
with
seating
heel
draped
shaping
hook
e12.200lm
releases
humid
ply
5@@
sea
beer
mild
washed
amazing
diapers
functionsonly
sash
night
ue
usly
ideal
lies
ves@@
fixture
velo@@
farming
roo@@
mach@@
recommended
course
hood
magnifying
480
phone
reflect
full
feels
catches
c
seal
hjärta
confidence
er-@@
watercolor
room
ausonia
other
frosty
device
closer
locks
tips
not
dries
game
sit
extension
which
ste@@
bra
damage
tub
history
tear
silhouette
corner
effects
300
number
laptop
cloth
drier
winter
book
stronger
der
flowers
s@@
occurs
ajar
garden
saving
scraping
cs
bla@@
washing
beans
out@@
walking
transparent
featured
finish
re@@
pressure
able
gic
chopping
ating
dense
poking
tion
duck
high.iron
then.handwash
iron.line
mel@@
brackets
burning
dry.shrinkage
coordinate
resistance
wal@@
8@@
dried
5
urge
retain
deni@@
salted
rearrange
shirts
world
actly
ears
eyecatcher
relaxed
wh@@
need
hinges
skinny
elec@@
textiles
adjust
solution.protect
flattering
painting
spandex
yet
headrest
option
growth
beating
some
standards
regularly
sisal
highly
mi
rly
splatter
ner
ved
wicks
after
yo@@
ke@@
snacking
tly
handwoven
cups
small
ca
4@@
lying
sweatshirt
shoe
sauces
mounted
sl@@
computer
so
wrinkle
crisp@@
displaying
prepare
aluminum
lack
regain
drainer
focused
deep
slick
cor@@
bear
lots
inspiring
tilted
taking
dog
stan@@
amount
install
forearms
dividers
wooden
candy
ckering
percent
services
coverall
jean
posture
inst@@
layered
style
total
slats
overloading
mmy
spec@@
sweats
/
drill
mic
stretch
lowering
holi@@
ker
trichloroethylene.storage
thicknesses
que
tumbler
snow
waistband
amounts
drinking
bar
par@@
hang
tible
blan@@
nighttime
opti@@
contra@@
crease
hole
pretty
cultivation
arts
chi@@
hall
putting
quil@@
highlight
fleece
separa@@
milled
weathered
use
abrasive
handy
themselves
design
plant
acids
distressed
moves
95
exact
di@@
packed
versa@@
cas@@
ed@@
fastness
rt
desks
trash
whipped
collar@@
darkens
forests
ass@@
trap
both
timer
min@@
clean.shrinkage
of
machine
chan@@
ey
cloth.4
stem
covr
reinforcement
uprights
anti
out.@@
sauce
beautiful
technology
cked
lighter
headed
screwdri@@
sleep
material
sustainable
horizontal
tuned
pillows
cloth.daybed
190
accompaniment
fond
general
wadding
camouflage
san@@
ins
screws
balance
construction
changing
outlets
inserts
kind
expands
vers
box
inches
door
further
ge
supports
scarf
djuparp
bed@@
combined
reflects
pos@@
sleeker
suitable
n
sen@@
pocket
food
cycle.iron
airism
minimal
lead
10@@
find
preci@@
pots
drink
tasty
playwear
direct
oni@@
following
cushioned
quartz
cross
public
highest
tail@@
synthetic
coat
delicious
bles
padding
4.8
not.microwave-safe.freezer-safe.dishwasher-safe.leave
extendable
eable
seeds
mag@@
flexibility
artestar
absorbency
sportswear
less
series
ust
dou@@
under@@
desserts
sor@@
soiled
included
chunky
96
ds
leds
vidga
pen
seen
dropped
foods
ele@@
detergent
for
vegetable
sets
rattan
shutting
balconies
handmade
dess@@
portions
socialize
training
hugging
smoother
sides
crafted
po@@
renew
ke
li@@
maintenance
ra@@
turtleneck
soon
late
cake
improve
decorations
acquire
grasp
iz@@
brightens
trends
normal
plac@@
covered
quilting
before
lts
28
1@@
ber@@
cap@@
practicality
se
homes
ff@@
ght
child
taken
collects
vegetari@@
underframe
har@@
repellant
hard@@
thrive
midi
human
coverlight
ci@@
launching
within
dish
ray
ments
burden
likes
go@@
too
flowing
realistic
pairing
pressed
meets
glasses
tin
berries
changed
sight
during
cul@@
ash
personalize
risk
holidays
bulk
º
men
hi@@
throw
upward
extend
ous
a
minimi@@
caught
volumes
protect
northwest
practices
nut
was
ur@@
19
pliers
transport
sca@@
access
foam
fold
improving
saffron
ant
blended
linen
ways
friends
areas
feminine
mp@@
worries
ses
star
reverse
off
el@@
bottoms
por@@
bil@@
wholemeal
ough
©
closed
unisex
50
squ@@
ceiling
disassemble
per
ge@@
workers
mustard
mixing
22
peeled
placement
t@@
compartment
another
hardwearing
war@@
diffi@@
lane
wrinkling
allowing
eyesight
leaving
preparing
stubborn
butter
tough
trans@@
outdoor
ladder
up
grass
cande@@
sation
evaporate
oxford
handers
teflon
cin@@
lineup
drips
lukewarm
saves
expan@@
honeycomb
dvds
type
build-up
tter
rubber
chocolate
harder
strings
bent
warming
trimming
yar@@
sted
mixture
straight
sweat
accessor@@
form
cheese
sticker
absorb
efficient
alarm
for@@
bearing
kaihara
oven
lower
global
platinum
art@@
along
bench
size
fading
fra@@
cocoa
lifewear
most
directions
thickness
power
soaked
trunk
withstands
char@@
loo@@
158ºf
factor
will
sole
why
spray
sso@@
zing
outing
decking
dryer
spice
corners
jewel
valet
check
closets
quick
regi@@
ribbons
sewn
bottom
unload
clea@@
toe
bags
bucket
gar
roads
stretchier
flavors
pillowcases
cy
meter
approved
dinners
dishwasher-safe.@@
varying
safe
closing
neat
includes
pie
keepsakes
biscuit
warm@@
customize
pan
deca@@
flat@@
tment
quarter
toddlers
reci@@
anna
85
sunlight
neckline
cleaner.@@
suspen@@
including
sun
tastes
c.iron
preventing
rib
fitting
change
coverdo
.4@@
aromatic
ti@@
zes
stiff
n-@@
chill
da
creamy
adds
wipe
cart
components
kurabo
senses
variations
waste
33
business
tre@@
gloves
never
dressings
o
gri@@
ping
stability
plus
industrial
mischief
clou@@
upper
distinctive
licensed
terms
&apos;
square
wash.machine
tested
stay
medium.do
docu@@
7
railroads
el
e12.400lm
climb
backing
ach@@
ur
traces
p
quality
25
23
stack
acquires
york
tte@@
jam
spoon
conducting
fiber
tt
asc
un@@
ck@@
wet
provided
arrangement
holes
innerwear
renowned
inter@@
zier
passport
bes
sol@@
win@@
you
hol@@
pollen
tin@@
grinder
spin@@
green@@
everywhere
edge
pilling
metal
crush@@
arch
hose
plated
bonded
billion
clean.line
carpet
management
deodorizing
work@@
ral
cushionmachine
ö
3-pair
breasted
rust
raised
securely
pictures
condensation
chargers
gu10.4@@
sits
tall
angles
shaper
40
dye
c@@
own
magazines
rota@@
suited
techniques
sparingly
arm@@
berry
slight
bite
settings
c.do
y
moistur@@
pose
bag@@
minimalistic
painted
softly
crackers
steel
wheat
binding
fine@@
gaps
tur@@
assembly
cran@@
lie
beauty
such
penetration.protect
feathers
mulled
sprin@@
drea@@
environmen@@
ting
woodwipe
best
privacy
stitched
placed
p@@
chil@@
equiptment
industries
shu@@
field
tter@@
bend
window-@@
strap
mate
zipp@@
seam
na@@
wise
me
aftertaste
fad@@
drinks
turning
vent
reduc@@
depending
evo@@
zippered
lavender
ining
gi@@
teenager
nutritional
reversible
ribbon
tool
started
60
dy@@
coming
orchids
hard
silently
comes
nicely
mp
detail
ei@@
cooktop
hems
be
then
sinks
jute
last
finer
planet
bases
circu@@
remove
tablet
baskets
button
infuser
pairs
twill
preheat
3.@@
desired
essly
fec@@
over
fit
tech
bility
fied
feather
beautifully
vases
folds
interior
makes
containers
hugs
finely
bikini
circulate
comfortable
ment
lly
ven
napping
briefs
twist
chic
shiny
proportion
particularly
rims
hiding
wennerwald
carafe
connection
sounds
left
ramie
crunchy
custo@@
pp@@
secon@@
marmalade
drawers
while
ney
between
lan@@
bunch
next
chair@@
smoo@@
00lmwipe
tra@@
ac@@
grows
mon
gas
alternative
improved
enjoy
tage
supply
crossover
ride
bran@@
cloth.shelf
pped
hand
skims
viscose
occasionally
pajamas
city
sprz
welcoming
mor@@
pens
rub
ces
ks
electronic
cushion
to@@
slip
prepared
timeless
complete
mmer
su@@
wild
radiant
adjusts
cation
vintage
sour
port
confined
hot
flavored
wirelessly
ever
leave
wires
craftsman
its
transforms
replacing
track
appearance
lt
handbags
classics
wintertime
according
count
packaged
tionally
gro@@
block
fisherman
modular
jar
substantial
kuggis
fam@@
evenly
tted
adjus@@
imitating
players
controls
conver@@
spacious
brush@@
showcases
appro@@
oily
doors
careful
ni@@
thin
objects
sunglasses
smo@@
mug
sli@@
few
solution.wipe
grid
tting
lea@@
airy
contains
fi@@
tmachine
detach
concentration
coffee
band
uses
meet
sorting
hand@@
mm@@
seat
age
draw
¾
choo@@
rug
spilling
mattresses
attached
coco@@
ple
shrimp
wri@@
salt
shed
wine
fully
tray
near
kni@@
source
comp@@
co
iron
spill
coll@@
kept
eyelet
read
dual
main@@
let
ordination
how
2-@@
illustra@@
snacks
providing
multi
fabrics
ert
bedroom
vacation
speeds
komplement
flash@@
fruity
rays
vaccuming
plug
floor
spruce
slowly
five
lo@@
tones
automa@@
fa@@
hidden
am@@
organizer
relieves
fisheries
dry
materials
leg@@
placementfor
similar
pillow
quart
gains
leather
theme
patterns
fly
ima@@
roomy
looser
inspi@@
mis@@
suction
lillabo
clara
anti-microbial
ches
sports
requires
nal
3
dolls
directed
mid
patio
fiberboard
la@@
magnet
platform
accommodate
medium
spread
beverages
unused
cooktop.oven-safe
extre@@
vo@@
dimen@@
until
placket
dently
inte@@
stretch@@
globe
places
sil@@
mil@@
india
argan
rate
instead
innovative
front
frame
odors
screwdriver
notch
mize
replaceable
equipment
heading
outdoors
short
tables
locked
tools
letters
pot
l@@
)
tidy
imp@@
lockable
reading
tilt
eye
evapo@@
tar@@
vely
hangers
knocks
busunge
spi@@
apple
wherever
fast
sateen
bodysuit
reli@@
incorporates
travel@@
could
low.dry
storing
constricting
marathon
stop
drive
shine
added
inners
holders
carefully
fruits
transports
stand
loves
hollow
bulbs
large
ali@@
blade
bottles
dimensions
onions
ch@@
clean.stretch
blackberries
shing
gra@@
pillowcasemachine
clean.cover
grip
skin
sliding
footrest
scre@@
facing
possible
sco@@
conditions
filling
relaxing
rs
rac@@
semi
life
cooked
showcase
ribbed
minima@@
24
strea@@
interfacing
64
clean.back
certain
practi@@
patina
plate
racer
peaches
cap
lights
nougat
steps
ofantligt
beds
ned
traps
friend
narrower
games
oil
riktig
ro@@
bleach
thirst
pointelle
14@@
preserves
slips
preferred
eating
ck
ceramic
can
grooves
want
story
rustic
windows
knees
landing
é
efficiently
eve@@
depth
towels
volume
gear
impact
treats
freezer-safe
overhang
today
oven-safe
solid
chair
att@@
meal
smartphone
exciting
throughout
lasting
match
scouring
365
oo@@
this
lint
bagganäs
equal
cuff
dimensional
ly
response
development
keep
eat
tealight
potting
sections
sturdy
suppleness
adventure
eket
strips
ingatorp
emptied
pans
teach
deeper
unsaturated
salad
two
bin@@
agave
high
i@@
gowns
conveniently
combines
accu@@
handbag
seaso@@
towel@@
organic
corn@@
scented
select
saucepan
30
listening
ss@@
building
sc@@
toot
ve@@
harsh
making
bright
acti@@
ther@@
person@@
shar@@
measure
2017
except
sq
dots
des
ny
wax
adult
clean.vacuum
darts
leaning
bac@@
relieve
faucet
water
thing
gan@@
sustainably
umbrella
side.dry
inventing
cloths
year
charac@@
wide
whisk@@
dimensioned
aims
prefer
ants
needed.always
foil
new
jars
post
energizing
by
cardamom
drawer
mushrooms
do@@
contoured
details
broad
mold
grain
brushed
sheer
als
sea@@
exercise
draws
closes
är@@
flying
peeling
blend
low.iron
baking
1x1rib
lamps
pastries
stimulate
height
stabilized
pulling
frequently
diffused
pow@@
pushing
fragrance
red
deeply
98
vertical
experience
cabinets
allen
lift
mode@@
distinct
lid
easy
rent
uring
pendant
con@@
beginning
everyday
disposable
group
tar
medium.dry
sweet
attractive
eves
dowel
empty
fixed
effort@@
visiting
8
shirt
darker
shadow
gh@@
fall
skirt
dr@@
foundation
arrange
framing
lot
the
waffle
produc@@
fan@@
vä@@
renewable
absorption
clean.inner
and
neater
tes
protruding
range
develops
look
sewing
ma@@
waterwater
ger@@
urs
cooler
butt@@
coordinates
cocktails
may
spots
tealights
snug
unsurpassed
timesaver
microns
clean.pillowdo
creativity
pax
microfibers
4
worn
flat
35
ko@@
ön
0@@
uplight
ch
j
cds
dishes
softer
toymachine
expresses
chandeli@@
color@@
breaking
gray
bookshelves
replica
glassware
lamp
connect
bust
kallax
display
control
pre
arm
per@@
springy
5-seat
black
undo
d
sunny
depths
lively
ded
cen@@
magnetic
nice
switch
wall
still
ba@@
art
curtain
ingredients
makeup
root
insert
clock
underside
cuffs
suggested
giving
container
certified
birch
penetration
carrying
solar
beam
sheltered
protection
lacquer
app@@
mood
tie
open-collar
adapt
messages
sk
trous@@
ering
jackets
deteriorate
sprout
dia
bas@@
ven@@
fill@@
variety
icing
gentle
coveriron
hou@@
g
thread
therefore
mail
always
clothes
casts
so@@
american
scratch
refreshing
underarms
ling
market
basic
soap
microfiber
ripened
jewelry
shrin@@
gar@@
wipes
purchase
shell-look
knitted
snap
avoid
begin
trend
buckle
interlining
care
86
tip
crouching
tucked
gin@@
sophisticated
cra@@
hanger
eled
lls
west
see
hallways
craftspeople
tradition
laptops
ance
clean.wipe
staining
shortly
durability
detached
2
profile
diffuser
pers
gs
handcrafted
kitchens
scratches
toddle
ce@@
various
mismatches
undone
net
stylish
wrap
gently
tablecloth
glossy
ens
armholes
v
atlantic
buy
craftsmanship
70
situations
functions
cushiondo
money
poncho
particu@@
hobby
fewer
coloring
sand
ribb@@
running
perfect
rails
football
desk
vi@@
st
wards
leaf
self
compartments
minute
cushionhand
rib@@
steaming
everything
based
stainless
environment
cooling
signs
gathered
sandalwood
happy
dry.@@
chri@@
built
ation
der@@
electric
east
uld
bookcase
denim
ts
pri@@
dri@@
staple
?
generation
drawing
sort
grundtal
wash.do
12
18
organize
aside
gh
freshly
tablewipe
dproof
combining
fingers
excess
effective
drain
cell
2.4
&quot;
permanent
interv@@
runner
green
on-@@
horseradish
w@@
flatware
marin@@
stick
protected
it
mouth
dimming
gentler
320
arranged
slightly
hooded
papers
sandpaper
sph@@
drawings
st@@
basketwipe
simplified
ounces
raisins
better
great
quilted
armrest
beads
mid@@
seagrass
stir
turned
equipped
refined
opens
softness
exceptionally
pants
kids
reflective
developed
cleaner.clothes
corn
loop
threads
shir@@
svira
il
self-deodorizing
coin
as@@
been
e
15@@
h
liable
sn@@
system
hel@@
ts@@
dishwashing
special
g@@
accentuated
insula@@
gubbarp
3-seat
label
uti@@
motion
meals
mirrors
acidity
side
numbers
moderately
sound
simply
terry
detailing
al
lates
buffalo
suits
stitching
keeps
lled
thinner
.professional
capability
useful
outfits
lap@@
coun@@
multi@@
me@@
grains
base
wash
tri@@
instructions
enco@@
trimmed
plays
ken
pasta
tt@@
signals
alla@@
value
sleeping
using
recycled
protein
2-pack
secretary
cloth.wardrobe
ansluta
identical
skurar
suit
reduced
culti@@
oiled
rear
spreads
or
ergonomic
reduces
boiled
dampened
rugged
pieces
anklet
cars
deci@@
replace
illuminating
her@@
gloss
d@@
matter
waterproof
hon@@
authentic
pads
fill
rasp@@
round
innovation
coverhand
finishing
contents
easily
cal@@
gging
resi@@
choose
potpourri
groove
durable-press
workwear
eagerness
b
lingonberry
arms
into
jo@@
weights
fika
advent
resistant
at
l
shrink
skilled
folding
cracking
gift
printed
level
shel@@
novel
important
wear
tension
h@@
leaks
equally
polyurethane
relax@@
x@@
dirt
converts
tempered
gussets
mah
leg
raspberry
whether
com@@
casual
more
cloud@@
sheet
lacquered
briefcase
cook
bowl
waterproofing
core
incomparable
wants
n@@
rustproof
cle
ble
accommodating
build
son
porcelain
mess
window
tend
lu@@
separated
expecting
geometric
cele@@
gingerbread
mi@@
lit
required
assembled
rod
cloth.workstation
rulers
geable
dra@@
fun
silicon
dishwasher-safe
firm
ups
homework
smoothly
sharp
cycle.to
dist@@
especially
suc@@
revolutionary
nordic
zz@@
dining
ironing
box@@
brain
serrated
unplug
would
sweater
feedback
rail
elegant
monsters
tions
m@@
very
122
motif
00
warm
anywhere
get
tab
try
shades
favorable
chrome
tea@@
nightstand
freezing
hands
throws
rhubarb
nils
cotton
direction
what
code
add
tched
washcloths
exceptional
or@@
marks
save
padded
lining
guests
warrranty
oranges
ha@@
söderhamn
outside
drape
preserve
abrasion
decorative
shoes
print
outfit
tened
k@@
ant@@
⅓
craftsperson
chairwipe
gx53.600lm
patter@@
show@@
items
moni@@
topwipe
hor@@
tr@@
bamboo
tness
tasteful
cur@@
process
bunny
racerback
outs
overheating
manual
elephant
tapered
divide
solution.maintenance
melamine
laminated
bal@@
bun@@
candles
showing
bin
ll@@
ev@@
maintaining
cookware
shell
6.@@
graduated
them
dresses
removable
enhan@@
bir@@
necessary@@
containing
cking
switches
notes
bomb
directly
roller
comforters
shortbread
app
crea@@
pancakes
swedish
mottled
zed
athletes
crispy
circulation
cropped
hu@@
bot@@
lounges
once
demands
leisure
va@@
creates
colder
tulle
ton@@
ves
hip
wagon
9
pen@@
entire
breathes
sley
oa@@
oc@@
cloth.clothes
distinguish
either
regulating
desig@@
colla@@
socks
additional
dope
e2@@
spor@@
dim
necessary.wipe
kitchen
ikea
ess@@
boil
main
despite
washable
barley
wavy
additives
drilling
heights
done
when
cooks
least
lingonberries
units
pallra
pronounced
repellence
absorbent
board
hammock
luxury
viewing
glow
connectors
・
high.do
lined
accompanying
exten@@
aroma
name
blanket
fat
act
hin@@
piece
pellets
wages
blink
neutralizing
losing
store
yacht
cables
capacity
finished
lingering
cargo
animal
ready
cloth.dishwasher-safe
simple
lip@@
rechargers
frozen
redesigned
station
flagship
allows
pastry
64º
reaching
shoulder
stra@@
operated
horizontally
inseam
waisted
foot
insulating
tv
jacket
artificial
unrestricted
fork
crafts
provide
ser@@
c.@@
eting
casing
illumin@@
z@@
homekit
adjustable
coast
perfectly
65
doing
r
upda@@
lock
pota@@
algot
wo@@
kivik
middle
toasty
v@@
rene
fasten@@
ligh@@
window-cleaner.wipe
bri@@
dissolving
drafts
leak
result
balan@@
coats
ging
hitting
solvent
handwash
activity
sin@@
strain
hanging
toothbrush
th@@
tw@@
sneakers
designed
curtains
fuel
miniature
increase
calcium
needs
north@@
mirror
out
2@@
binders
width
canopy
ce
light
warmer
grown
paired
vest
82
address
rayon
jersey
ad@@
gradient
;
side@@
laundry
are
parking
ff
grinding
gical
heavi@@
‒
solu@@
knit
bra@@
furnishings
armrests
learning
nature
available
larger
withers
windproof
brings
uniform
amazingly
lace
illustrations
tee
towards
fantasy
super
gre@@
dispenser
scarves
enga@@
photos
spout
snack
designs
enjoyed
where
oversized
⅞
uri@@
lifelike
low
furry
crawl
steam
crotch
friction
silent
athle@@
cycle
sti@@
wellington
toddler
incandescent
heavy
smaller
80
powder
collection
cabinet
potty
7@@
fto@@
retains
dinner
puckering
ancient
orn
atmosphere
wool
who
again
applying
uniqlo
cud@@
imagine
season
sheds
spot.professional
ghts
velvet
lar
clay
slanted
salads
bi@@
m
ffe@@
expression
point
home
.water
wed
ban@@
vice
canvas
vacuuming
out.sofa
ani@@
replacement
improves
zink
bike
letter
succulent
wall@@
defective
stic
coverto
genuine
boholmen
rin@@
sweaty
men@@
sliced
sunburn
ordinary
toilet
instance
tighten
artists
trichloroethylene.@@
len@@
r@@
wood
.tumble
island
iron.dry
stitchwork
inside
dill
ines
teddy
all@@
joint
emits
hiphu@@
greater
layer
countertops
mattressdo
ec@@
hiphugger
bookends
smoked
10
rage
does
matte
dvd
via
fastener
gus@@
coverprotect
sh
pole
im@@
types
matches
hall@@
sma@@
different
ated
secure
already
candle
collections
cro@@
bending
supple
mat
dimmable
wait
play
absorbing
favorite
outerwear
wheels
quencher
venti@@
ther
lasts
white
grund@@
day
heather
holder
basket
tee@@
brown
ies
moment
upwards
bo@@
colorful
potatoes
mites
figures
-
les
cured
body
penetrating
regulate
et@@
soci@@
truly
kes
plates
wea@@
wrinkled
up@@
ä@@
cacao
cloth.door
watt
ärta
press
pull
stores
puffy
backside
spotlight
hide
tanner
whee@@
kit
etc
frost
odor
ultraviolet
closure
.do
ever@@
invi@@
spring
pa@@
combed
errands
ne@@
technique
acces@@
clamp
closely
micron
slipping
sleek
latex
covervacuum
cru@@
freely
soil
.@@
deliver
friendly
wearing
seafood
ment@@
ja@@
an@@
across
al@@
origin
moved
attaching
minds
creative
gg@@
damp
pine
paint
pencils
stripes
movements
converted
taped
placing
tion@@
boyish
whenever
original
pressing
key
density
follow
tucks
sh@@
bib
ard
mornings
rather
charging
hardware
runs
indoor
controllers
comforting
disa@@
hangs
filled
waist
michel
f.freezer-safe.dishwasher-safe
warranty
remo@@
tures
car@@
coordination
but
automatically
tomatoes
balls
cute
cut@@
comforter
ada@@
ttle
shortened
curves
card
write
vel
subdued
health
mixed
sleeper
er
stuff
ter@@
mp3
et
moving
mattress
els
limited
break
ones
ankle
dly
gu@@
magazine
fro@@
bul@@
minimizes
tanning
here
conduc@@
ps
load
sleeves
fittings
lemon
streamlined
exterior
deodorization
nylon
shade
file
neatly
opening
washer
ex
vary
o@@
emit
tening
ving
stable
honk
floors
regular
occa@@
lowers
shapes
surfaces
styles
sandals
reacts
tailored
tradi@@
conc@@
id
compa@@
clean.dry
separate
leathercare
cleaner
baby
slimming
resu@@
hearty
molds
hint
structure
through
summery
recovery
carry
anyone
tightening
quietly
features
furniturestore
temp@@
padmachine
role
iron.do
chairmachine
irregular
moisturized
loun@@
enclosed
seasonal
pur@@
run
glazing
nothing
burned
tone
belts
lunch
hemmed
trays
ture
brochure
spills
convert
unique
vibrant
muffins
milk
ör@@
underbed
cer
setting
speci@@
mobility
bring
concealed
mo@@
rim
snowfall
gather
row
carefree
thinking
water@@
area
picture
resists
conducts
tches
heads
bly
matt
effect
loops
diaper
lambs
products
sting
fer
tired
visible
we
est
neck
thicker
compactly
3@@
bi
rose@@
vents
sv@@
blowing
inf@@
maybe
low-@@
thy@@
transform
la
specially
personal
tu@@
knife
fresher
dreams
lightly
having
gateway
package
stor@@
solutions
function
restful
cm
unlit
memorabilia
rinkle
potted
devices
ery
basis
®
symbols
connected
rable
seeing
tered
rich
protec@@
17
ets
prolong
train
lounger
basi@@
meticulo@@
dampens
delicate
cloth.pull-out
lithium
induction
strainer
impressions
balanced
almond
extreme
people
ush
absorbs
blind
pin
,
about
sec@@
cameras
dividing
rates
outer
distributes
space
motifs
spices
ic
hemming
purpose
standing
shorts
gateleg
magnets
wallpapering
ms
20
phil
se@@
ai@@
carbonated
ga@@
handed
apart
electrical
screw
necklaces
basquiat
traffic
safety
versatile
characters
måla
unpeeled
climates
dough
tou@@
clear
woven
slot
coarse
systems
playing
king
discharge
j@@
long
product
ponte
flu@@
crepe
flooring
high-@@
äs
focus
mar@@
scent
honey
consistent
plasticwipe
messy
shelving
s
pre-washed
resembles
memory
formal
temperatures
beg@@
max
opera@@
vie@@
stamp
prin@@
above
meats
stu@@
mechanism
packaging
26
swea@@
breathability
toray
f.freezer-safe.dishwasher-safe.leave
chandelier
go
bleach.do
mashed
embracing
buttons
heartwood
tional
processed
harmless
forget
attachment
tch@@
th
mickey
modern
cleaner.pull-out
roles
old
trinkets
feldspar
nearby
usual
gli@@
armchair
colors
springs
occasion
watch
good
plea@@
something
sweden
character
culture
covermachine
start
prevent
disturbing
upf
far
temperatureminimum
acci@@
quest
urethane
parti@@
brushing
surroun@@
scratching
stars
16
mless
headboard
lamé
flatter
fronts
floorhead
skipper
fiery
multiple
gx53
non-removable
bit
er@@
belongings
mix@@
fin@@
tally
chemicals
extended
stitchless
drawn
refresh
tight
narrows
organizers
heels
treated
tap
fennel
13
non-abrasive
blacking
there
year-round
sprou@@
individual
writing
particleboard
created
galvanized
prevents
din@@
cated
zones
include
ir@@
collage
finger
variation
ben@@
ths
defrost
lean
served
high.dry
gives
garment
bea@@
hacksaw
deli@@
ss
brace
torque
trendy
helps
rare
wings
cloth.mesh
have
compensate
troublesome
sense
playful
luxurious
ning
maximize
cinnamon
towel
protective
flexible
sho@@
chest
parts
shelves
af@@
protects
chairdo
u@@
rooms
blown
natural
sula@@
glass
maker
tank
complement
professional
fasteners
skills
work
stirring
dry@@
finials
grace
y@@
months
shelf
mps
efs
scar@@
sun@@
popular
tumble
reflec@@
wicking
hold
cable
expand
pair
phones
resource
maximum
nel
storage
sloping
sharpen@@
supima
three
sanded
le@@
100
microwave
holds
nor@@
ring
proof
boards
stitch
random
partitioning
is
preeminent
hours
caster
fraying
te
entra@@
injury
detachable
fauc@@
secre@@
dry.vacuum
allergic
unintenional
9@@
levels
tte
blocks
ges
plank
cast
ing
safer
combat
sensor
immer@@
trest@@
nea@@
aim
has
rinsing
fee@@
plants
repeated
sion
subtle
dai@@
they
linens
grate
herbs
omega
woodthe
safely
fitted
lling
stre@@
shines
pu@@
fade
cream
tic
coded
co@@
reach
chinos
utz@@
k
toys
tell
tamper
yogurt
straps
create
tomorrow
inch
crown
tro@@
low@@
rack
spare
fruit
provides
someone
template
eyes
alone
bath
tabs
loosen
matching
sometimes
often
slide
project
lines
bur@@
distance
behind
00@@
production
bigger
chambray
these
flash
fresh@@
trellis
212
non
calves
structured
hips
enhances
cordless
unparalleled
rise
trichloroethylene.back
right
sofas
hejaren
mercerized
ski@@
rolled
accents
molded
attention
deciding
warmth
opened
really
crank
liquid
rest
pon@@
v-neck
days
endless
sticks
string
slim
handle
dress
panels
nings
eraser
rating
wrists
wardrobes
portion
sweatpants
coziness
chaise
end
heart
apples
ings
regardless
clean.protect
entirely
embroidered
pl@@
fini@@
elder
treatment
play@@
method
sandwiches
cloth.@@
remover
remain
collar
book@@
contemporary
windowsill
battery
besides
polyester
wi@@
produce
leathervacuum
w
flower
attaches
stretchable
mou@@
pla@@
opener
loads
fixtures
rec@@
ze
+
typi@@
sized
holiday
incredibly
sp@@
ent
enjoying
sa@@
-easy
delica@@
surprising
wake
ld
siblings
queen
releas@@
en
sparkly
dge
face
adhe@@
knob
detergent.professional
oak
projects
in@@
cutlery
seams
ere
orts
150
undershirt
dot
water.do
org
ster
also
mber
big
wiped
offer
almon@@
catch
qui@@
00lm
car
pears
balcony
pleasant
f@@
were
enhanced
jea@@
recipe
stimulates
mounting
contours
flow
even
approximately
disney
our
constru@@
sport
neckroll
well
duvet
show
contrasts
zip
unlike
pillowdo
cha@@
offers
superb
recyclable
vegetables
cooking
school
kid
ers
biscuits
working
pain@@
travelling
c.dry
part
notice
poultry
ultra
dip
wedge
aromas
higher
hug
collect
bedlinen
tations
environmental
ear
whichever
updated
headings
means
e@@
ion
pan@@
hub
foldable
hem
47
am
positions
newborn
pockets
celebra@@
yarn
ug
c.sleeper
responsibly
collared
uv
wood@@
bottle
piles
women
swi@@
who@@
fingerprint
blackboard
stard
down
customer
organized
brass
veneered
mint
festive
hinge
lays
eyelets
pper
rings
fastening
squee@@
fish
clothing
ice
cashmere
take
protectors
becomes
years
walk
develop
others
craft
packs
free
soften
cho@@
stops
00lmdust
simultaneously
shoulders
stays
mb@@
liningmachine
times
ssing
regulary
example
changes
bedding
inverted
scoop
encourages
treat
www
⅛
move
sts
infor@@
bu@@
edging
e26
coating
media
us@@
microwave-safe
attach
case
exc@@
retrac@@
source.location
yarns
bag
options
nic
roof
bake
scooped
re
beneath
sided
combinations
mir@@
openers
:
goes
clicks
silicone
pping
marbled
ter-@@
cone
stationery
energy
line
sealing
sandwich
satin
pro@@
pfoa
first
ure
multi-use
yourself
fridge
effortless
alike
section
tape
utensils
breakfast
retention
ties
pale
ver
björn
road
utility
e1@@
liquids
winters
quick-drying
cla@@
heating
pering
are@@
es@@
visi@@
jointly
nutmeg
enhancing
distre@@
sibling
measurement
away
ear@@
lightweight
coversteam
worry
fair
increased
tal
feet
featuring
mélange
sauteuse
moderate
locking
volpi
loose
pes
follows
mping
ver@@
www.utz.org
gets
functional
ons
sten
protectordo
wallet
sponge
weaving
babies
remaining
silky
densely
should
damper
seamless
wind
ters
⅝
scents
daybed
wells
famnig
stemmed
turn
42
practical
pops
yellow
å@@
bathroom
pink
continues
picnic
upright
naturally
rotate
blocking
trip
wo
terrace
hung
tent
acid
intense
lanter@@
significantly
necessary
bel@@
screen
uncluttered
exp@@
learn
sw@@
faster
ages
strikes
riding
discolor
fire
reinforced
wireless
edges
ter
impression
produced
bread
inserting
conden@@
just
pulled
gracefully
resilience
skir@@
si@@
lounge
trun@@
pour
moo@@
ambiance
applies
000
flared
actually
conforms
segments
connecting
ll
toppermachine
toes
single
fil@@
vase
chun@@
stretchy
428
wasted
rods
workstation
mix
underlay
ginger
hearts
strip
covers
cowhide
hair
maintains
air
crates
furnish
slipcover
crumbs
chain
desktop
ball
meas@@
appropriate
lig
de@@
out.back
cl@@
mer
fai@@
cing
essential
ka
darken
out.armrest
kills
sig@@
floral
fresh
counter@@
pepper@@
msc
lovely
backpack
over@@
those
increases
batteries
comfy
dal
bathrooms
uni@@
join
pouch
assemble
no
moisture
soup
movement
heattech
tableware
unmatched
anything
tigh@@
meatballs
precipitation
busy
loyal
stripe
coordinating
air@@
pop
party
centers
gu10.400lmwipe
kinds
15
nt
ensures
leggings
to
ed
from
since
pe
familiar
do
preferably
optimal
steak
overview
dilute
sectional
accurate
minimum
in
soa@@
low.do
tiles
drying
slender
sticking
crumble
textile@@
texture
runners
e12.2@@
vy
view
lemaire
ö@@
rugs
32
regains
ly@@
dampers
trim
sleek-@@
blue
smooth
oat
goods
seasons
paper
chalk
racks
sheen
adapted
cleaning
¼
trousers
maternity
fabri@@
ler
shows
freestanding
substances
⅜
spectrum
spot
ley
grow
because
preference
ls
ve
f
jacquard
nuts
step
map
spinning
invisible
depen@@
max@@
anti-odor
11
vacuum
remote
smart
qu@@
crane
cords
mounts
mugs
serve
getting
glowing
pushed
separately
ally
floa@@
inn@@
radiation
insulation
camisole
sto@@
soft
looks
problem
adapts
condi@@
coordinated
divider
relax
brake
spark@@
parall@@
sof@@
enameled
6.10
ventilation
domsjö
loss
microwave-safe.@@
standard
vin@@
lefto@@
charger
thro@@
indoors
sideboard
ki@@
decoration
27
sustainability
thi@@
accent
rolls
deter@@
candlelight
de
travel
ren@@
decoratively
browns
solution
cling
incorporated
firmness
chilled
zi@@
personalized
van@@
legs
cri@@
adjusted
brought
dishwasher
release
slatted
heat
enjoys
backrest
won
enough
ries
react
pillowcase
pea@@
sses
textured
servings
tten
foggy
sources
stool
your
coverclean
t-shirt
ood
us
pure
cover
prolon@@
flies
ted
bonnell
top@@
love
merino
pile
phthalates
hints
gardening
christmas
preserving
going
weight
ottoman
shaving
any
ying
bridal
regula@@
shi@@
asymmetrical
real
wad@@
5th
metho@@
washers
freeing
children
location
responds
give
team
pas@@
cami
pee@@
.
ns
sensitive
place
chocolates
bracket
object
keeping
dust
mer@@
indi@@
feel
chino
darkening
0
girls
call
pleats
shake
if
lids
stains
weft
period
repea@@
table@@
ink
luggage
several
bowls
tive
straining
corrosion
joseph
themself
come
unit
separately.do
functionality
accessory
gula@@
bacillus
stickers
heighten
incredible
content
completed
street
bpa
fluffy
steady
way
pre@@
doesn
strawberry
sely
rubberized
super@@
nutri@@
½
dis@@
stackable
under
cooktops
°
cal
farmed
many
lumbar
set
truck
freezer
refrigerator
harmful
snuggle
ety
felt
chairs
cut
eets
make
plastic
prolongs
sha@@
cleaner.wipe
lin@@
groceries
sleeve
mean
seg@@
an
same
certa@@
dogs
falls
premium
that
wrink@@
ddy
whatever
calendar
ching
trichloroethylene.mattress
surface
dressing
parka
oz
each
longer
coagulans
garlic
personality
trivet
relief
cedar
intermediate
brighteners
clean
bs
textile
spaces
as
swee@@
enamelled
eal
raise
lyocell
vity
comfortably
stories
weave
son@@
spreading
cardigan
tries
ta@@
tomato
completing
utz
colander
le
one
fo@@
diameter
fabric
sporty
é@@
cycle@@
intervals
squeeze
firmer
knives
consumption
ful
dimmer
ped
bredskär
serving
il@@
newspapers
narrow
constantly
atmospheric
ell
ensure
immediately
shorter
widths
family
skirtmachine
activate
sal@@
nautical
braided
bar@@
nu@@
arran@@
lli@@
chairiron
metal@@
com
ener@@
mini
fatty
visual
see@@
boxes
item
juice
detailed
eek
watering
washing.do
gers
tea
ils
shes
cycle.machine
possibilities
caps
mount
shower
breathe
don
decorate
dry.iron
blo@@
bulky
open
belt
their
angle
foot@@
.line
pique
napkin
tightly
flo@@
close
candle@@
i
